#version: 0.2
t h
i n
a n
t i
e n
th e</w>
e r
o n
r e
an d</w>
a r
in g</w>
o f</w>
t e
o r
r o
e s
o n</w>
t o</w>
a ti
i c
s t
a l</w>
i t
a l
i n</w>
e s</w>
a t
a c
c o
l o
e d</w>
e c
s i
p ro
m en
u r
c h
i s</w>
d e
o r</w>
p l
a t</w>
d i
T h
u n
l i
a n</w>
s u
s e
r i
n o
ati on
a s</w>
ati on</w>
c on
s ,</w>
v e
r a
u l
a b
i l
th e
v i
c i
v e</w>
l e
co m
e x
u s
科 技
m a
t s</w>
f or</w>
th at</w>
ti on
p o
t er
a s
c e</w>
Th e</w>
v er
s .</w>
e l
d u
w h
i m
o u
p er
可 以
技 术
l y</w>
d ing</w>
研 究
lo g
m e
o l
en ti
g h
f or
s p
c h</w>
men t</w>
a p
n e
ar e</w>
' s</w>
b e
f i
l e</w>
h i
q u
h o
m o
te d</w>
it y</w>
t r
f f
te ch
at e</w>
a g
no log
b y</w>
a d
ti on</w>
in g
st r
ti c
men t
m i
se ar
y ,</w>
tech nolog
en t</w>
c e
re sear
it h</w>
y s
s o
es ,</w>
n i
w ith</w>
ve lo
c an</w>
p re
h a
e n</w>
in c
l u
de velo
d er
数 据
t u
for m
a m
i t</w>
s ci
ic al</w>
d e</w>
develo p
e r</w>
b e</w>
t ing</w>
ation s</w>
Th is</w>
c es
er s</w>
p ar
i z
f ic
du c
ho w</w>
con t
ur e</w>
en ce</w>
发 展
p or
通 过
b u
es e</w>
ys te
t w
ul d</w>
i s
f ro
it s</w>
te r</w>
com p
s yste
u m
or e</w>
fro m</w>
st an
m ar
es .</w>
d at
i r</w>
y o
en g
f o
al l
智 能
o m
g ni
an g
i es</w>
yo u</w>
no v
a r</w>
resear ch</w>
h as</w>
ic h</w>
the ir</w>
pro vi
an ce</w>
应 用
m ore</w>
f ac
t a
wh ich</w>
t o
y .</w>
s e</w>
in ter
s er
领 域
the r</w>
en t
inc lu
d s</w>
in nov
w or
d o
s h
su ch</w>
un der
th is</w>
di s
sp ec
p h
pl ic
ab le</w>
fi c</w>
v ol
si gni
ha ve</w>
i g
signi fic
t enti
b o
提 高
pl a
e ff
en c
technolog y</w>
sci enti
提 供
tion s</w>
po tenti
创 新
l a
dat a</w>
u c
hi gh
er e</w>
an t</w>
m an
g ra
k e
我 们
o p
pl e
m s</w>
h in
d es
t h</w>
e ar
k e</w>
安 全
影 响
l l
w a
develop ment</w>
r on
ser v
at ing</w>
e m
ne w</w>
b i
h an
j ec
帮 助
W h
lo w
p ri
环 境
re s
en er
ro u
resear ch
ation al</w>
s ec
C an</w>
th ese</w>
c re
un i
potenti al</w>
m e</w>
in du
ti ve</w>
， 科技
a re
a te
问 题
o ver
s t</w>
u t
di ff
en s
ti es</w>
ation ,</w>
u d
ti c</w>
可 能
学 习
men ts</w>
ou s</w>
g h</w>
tr an
te x
进 行
si on
k ing</w>
ri bu
t ra
gh t</w>
us ed</w>
com m
H o
ou t</w>
m at
form ation</w>
人 工
f e
g i
us e</w>
I n
en e
例 如
f in
ar g
ad v
o b
pro ces
ma g
如 何
重 要
这 些
c ur
te c
in te
stan ding</w>
str uc
Wh at</w>
科 学
人工 智能
中 的
co uld</w>
ar i
t ,</w>
wh at</w>
c or
per i
er i
， 以
il ity</w>
fi el
re s</w>
系 统
d ,</w>
al ly</w>
the y</w>
ou r</w>
al s</w>
en vi
di tion
under standing</w>
plic ations</w>
es s
e ,</w>
ing ,</w>
生 物
分 析
C hin
st ud
su p
方 面
iz e</w>
si on</w>
spec i
adv an
使 用
网 络
i d
tw e
envi ron
a ted</w>
的 发展
it e</w>
in e</w>
计 算
le a
v ing</w>
all eng
t e</w>
p ac
ci al</w>
be twe
ic i
betwe en</w>
cont ribu
ch alleng
es s</w>
p r
h e
mi c</w>
ch ang
al s
ur ing</w>
scienti fic</w>
s c
syste m
st ri
al y
no t</w>
ex pla
do es</w>
in to</w>
教 育
innov ation</w>
h um
par tic
qu i
c ri
th o
ti v
o ther</w>
im pro
us ing</w>
el ec
能 源
2 0
现 实
po s
als o</w>
d ic
t or
signific ant</w>
ati ve</w>
信 息
ve r</w>
w i
ag e</w>
il l</w>
th rou
pre s
pl an
w e
provi de</w>
eff ec
能 够
co ll
科技 研究
Ho w</w>
ce p
por t
co ver
st s</w>
m in
or y</w>
c u
g ro
f un
ar y</w>
pro duc
新 的
an aly
a u
diff er
w as</w>
tic al</w>
推 动
效 率
ac h</w>
st ra
o uld</w>
利 用
医 疗
r u
ab or
su m
ation .</w>
es t
so ur
im pac
re as
ener g
ex peri
sup por
ap pro
inclu ding</w>
e v
需 要
量 子
虚 拟
w ill</w>
， 如
si m
re c
ab ility</w>
lo c
此 外
s ?</w>
c ap
m on
w ar
un d</w>
pro jec
pl e</w>
g g
li m
ment al</w>
il it
首 先
mar ize</w>
indu stri
u b
e .</w>
al low
ex p
syste m</w>
in f
机 器
I n</w>
mat eri
l ic
expla in</w>
e t
al l</w>
s hi
k s</w>
ec on
vol u
v ari
te s</w>
high -
e d
一 些
re d</w>
a in
企 业
in formation</w>
答 案
s ol
保 护
例如 ，
li ke</w>
h el
p at
on g</w>
设 备
ab out</w>
th er
g r
tran s
s ti
mo de
s ur
ro le</w>
ma in</w>
de r</w>
it al</w>
throu gh</w>
ex am
。 此外
其 次
en ter
Th ese</w>
re l
经 济
re a
en ts</w>
dis cover
2 .</w>
1 .</w>
z e</w>
research ers</w>
des ig
包 括
co un
答案 ：
e o
， 从
y ing</w>
i r
eff ici
tex t</w>
科 研
解 决
si b
bi o
over n
t ro
3 .</w>
， 可以
l es</w>
ph ys
qu an
uni ver
l s</w>
v es</w>
d ec
基 因
in v
减 少
ment ,</w>
s es</w>
en ce
or i
comp an
li gh
资 源
A c
in e
实 现
o per
。 例如，
n ational</w>
inc reas
，从 而
方 式
lo b
on g
n ing</w>
on e</w>
con cep
tu m</w>
i c</w>
社 会
d .</w>
su gg
d a
ad d
作 用
处 理
。 首先
g overn
t ure</w>
， 这
sugg es
s ho
ur al</w>
大 数据
c el
si ve</w>
方 法
哪 些
c ul
ke y</w>
虚拟 现实
energ y</w>
l li
ma y</w>
comm un
me tho
4 .</w>
。 ></w>
stra te
w ould</w>
for m</w>
as ed</w>
领域 的
di g
tion ,</w>
f u
。 这
a ,</w>
d ar
g lob
v ed</w>
ic e</w>
ar tic
il e</w>
impac t</w>
hum an</w>
a su
一 个
re g
add res
联 网
ic s</w>
sci ence</w>
sp on
ag e
未 来
管 理
on s</w>
。 其次
使 得
su l
wh ere</w>
v al
mi s
sec ur
质 量
t ri
at u
im plications</w>
o ver</w>
p ub
理 解
中 ，
o mic</w>
quan tum</w>
开 发
id enti
p s</w>
challeng es</w>
no w
me asu
th an</w>
re spon
ac hi
stud y</w>
re f
it y,</w>
P ro
B y</w>
A d
ac k</w>
so me</w>
， 并
ing s</w>
d o</w>
al ity</w>
r ite</w>
speci fic</w>
d es</w>
可以 帮助
技术 的
用 于
com ple
与 研究
t y</w>
h is</w>
de tec
d ed</w>
c es</w>
le ve
服 务
e volu
s a
y p
gro w
elec tr
fiel d</w>
c er
all y,</w>
。此外 ，
s te
l arg
区 块
b ri
g an
pro mo
ment .</w>
i li
ac ces
technolog ical</w>
as e</w>
t s,</w>
dig ital</w>
concep t</w>
an o
us t</w>
k now
I t</w>
in vol
cont ro
区块 链
确 保
er ing</w>
cor ding</w>
glob al</w>
de v
wor k</w>
bu t</w>
inclu de</w>
t en
vari ous</w>
al iz
b ene
wi th
d ri
的 影响
t al
y 's</w>
更 好
in ing</w>
l ed</w>
be en</w>
ver s
ec han
c ed</w>
co p
挑 战
or s</w>
indu str
n ec
g o
s ing</w>
l ing</w>
用 户
y ear
comp u
能 力
m ic
成 果
t .</w>
en ab
过 程
im port
ma king</w>
tw or
， 提高
更 加
生 产
or gan
W rite</w>
g e</w>
ing .</w>
re gi
主 要
inte gr
ou t
enc y</w>
学 生
re ,</w>
以 下
tion ed</w>
m echan
sp ac
ar ly</w>
coll abor
cur r
re sour
re sul
te m
st or
人 员
设 计
a v
预 测
pro per
5 .</w>
tr ac
t re
有 效
提供 了
b ased</w>
se l
w ere</w>
ac h
the m</w>
em p
con si
全 球
p ul
enter pri
农 业
y n
lo w</w>
ap plications</w>
suppor t</w>
men tioned</w>
e t</w>
differ ent</w>
ate s</w>
th re
治 疗
appro ach</w>
性 和
c ru
di vi
产 生
syste ms</w>
dition al</w>
s s</w>
provi ding</w>
po w
ter n
进 步
re qui
enc es</w>
inter ac
E ar
u p
au th
a st
b r
lea d</w>
ab ili
工 作
t ly</w>
产 业
lim ate</w>
tion .</w>
pro tec
achi e
st ar
po si
ap plic
ne ed</w>
un d
i de
ti me</w>
材 料
g ener
fi r
proces s</w>
im ple
sti tu
c lo
ation s,</w>
pub li
ul ti
ve n</w>
des cri
in i
ne twor
man age
s on
中 国
il li
t s.</w>
scienti sts</w>
的 研究
l in
pl es</w>
科技 与研究
- -
来 说
。 通过
0 0
合 作
discover y</w>
项 目
an s</w>
lea ding</w>
pl at
提 升
1 9
log ical</w>
le ar
dition ally,</w>
secur ity</w>
c ar
s k
准 确
c limate</w>
li ght</w>
Ad ditionally,</w>
同 时
wor l
be r</w>
变 化
ic es</w>
U ni
伦 理
mag ne
li f
促 进
自 动
o ff
ac cur
ra p
y s</w>
l as
en d
产 品
更好 地
i mag
er g
technolog ies</w>
le ,</w>
at ure</w>
cru cial</w>
su b
S ci
ma in
sib le</w>
lli g
e -
mar ke
he al
n ano
a 's</w>
sc al
技术 ，
什 么
Ac cording</w>
po lic
h en
u m</w>
econ omic</w>
sum marize</w>
es t</w>
工 具
f y</w>
partic ul
z ing</w>
趋 势
hel p</w>
val u
疾 病
so ci
si s</w>
b us
divi du
in si
。首先 ，
commun ic
a x
ab li
e co
e f
t yp
gh ts</w>
eng ine
it y.</w>
high ligh
signific ance</w>
增 强
in dividu
政 策
他 们
g en
s m
ob serv
物 联网
di rec
ni qu
wor k
o c
更 多
be ing</w>
ation s.</w>
Th e
a m</w>
c ing</w>
pre dic
con duc
tech niqu
p a
持 续
T ec
comple x</w>
con text</w>
机器 学习
对 于
a use</w>
re duc
可以 通过
en han
需 求
industri al</w>
advan ce
g u
E n
发 现
算 法
S um
bus in
市 场
环 保
be ha
environ mental</w>
， 为
科技 在
vi e
i al</w>
重要 的
ut ure</w>
contribu te</w>
tra ditional</w>
ti ve
ro bo
l an
e f</w>
y ?</w>
p e
struc tu
pr ac
改 变
impro ve</w>
具 有
i st
优 化
u se
大 量
tu al</w>
。其次 ，
dec i
as t</w>
总 的
总的 来说
beha vi
po in
最 后
fo c
u p</w>
支 持
ens ure</w>
l ine</w>
est abli
e duc
ob jec
is su
er ,</w>
pro gra
Sum marize</w>
c y
ac y</w>
a ff
pl i
i d</w>
bu il
cre ate</w>
tem per
su per
mi ght</w>
mic ro
de p
带 来
有 哪些
particul arly</w>
allow ing</w>
t or</w>
。 这些
wh en</w>
qu ality</w>
se ver
ac k
pr in
平 台
inte llig
es ?</w>
bene f
strate g
ec t</w>
， 例如
b ec
n ed</w>
so f
sp h
f uture</w>
z ed</w>
fin d
hi gh</w>
ti m
o f
ti es,</w>
许 多
生 活
s en
实 验
科技 创新
航 天
are as</w>
Tec h
fu l</w>
tor s</w>
lif e</w>
科学 家
re la
a .</w>
广 泛
sugges ts</w>
d s,</w>
an ce
a im
研 发
com e</w>
人 类
ma ke</w>
工 程
pro b
govern ment</w>
f re
pri v
di st
m ol
w n</w>
le d
h ol
的 数据
struc ture</w>
h ar
acces s</w>
re al
b rea
compan ies</w>
技术 在
t ur
le ar</w>
ag es</w>
a in</w>
可能 会
wh ile</w>
er s,</w>
po l
g al
ra di
ti me
g re
fac e</w>
chang e</w>
，以 及
tw o</w>
网络 安全
太 空
ec ul
Ear th
tic s</w>
o d</w>
D e
了 解
知 识
signific an
d uring</w>
w el
curr ent</w>
体 验
electr on
C om
ri s
materi als</w>
探 索
reg ul
n um
ti es.</w>
si g
know led
机器 人
监 测
cont in
addres s</w>
s mar
具 体
Chin a's</w>
l y,</w>
bec ause</w>
Chin a</w>
的 应用
健 康
ter ms</w>
bri ef</w>
b ra
国 家
h y
宇 宙
fun c
Tech nolog
re li
shi p</w>
The y</w>
sh or
c a
in form
comp e
publi c</w>
cap abili
r ic
m ulti
sion s</w>
c r
ini ti
allow s</w>
数 字
ec ted</w>
人 才
on om
答案： <
con struc
s ens
ma de</w>
en h
计算 机
ti g
wa ter</w>
ef for
， 我们
ta in</w>
magne tic</w>
stan dar
控 制
su c
m ac
mol ecul
mechan is
R e
projec t</w>
不 断
ence ,</w>
n er
se ,</w>
el y</w>
评 估
， 通过
de ta
研究 的
develop ed</w>
模 型
sho uld</w>
fac ilit
co gni
措 施
关 键
illi on</w>
enh ance</w>
larg e</w>
电 子
du ce</w>
ad ap
per form
grow th</w>
cu s</w>
so cial</w>
mon it
高 效
inf lu
ac ter
con nec
结 构
的 安全
sol u
sever al</w>
gal ax
。 最后
a de
方 案
x i
benef its</w>
man u
f er
R es
be t
v en
化 的
fo s
c en
insi ghts</w>
par t
suc ces
me di
N e
find ings</w>
一 种
根 据
leve l</w>
m er
不 同
u s</w>
fo cus</w>
p i
l ack</w>
per son
desig n</w>
C h
s :</w>
develo p</w>
vers ity</w>
import ance</w>
sp e
大 的
隐 私
on ly</w>
co ur
inter national</w>
b er
ch ar
可以 用于
manage ment</w>
sof tw
wa y</w>
the ory</w>
pre ci
ag ing</w>
医 学
organ iz
compe ti
a i
决 策
sim ul
复 杂
innov ative</w>
bo o
p ho
A I
ver ,</w>
j o
pat tern
develop ing</w>
contin u
advan ced</w>
se .</w>
fo und</w>
us es</w>
随 着
r ang
国 际
establi sh
pro pos
il l
ex pl
te ch</w>
tex t,</w>
provi des</w>
significan tly</w>
contro l</w>
p ec
sig n
st ain
g ene
prob le
s ed</w>
因 此
编 辑
manu fac
industr y</w>
解 释
imple ment
chang es</w>
te am</w>
s am
st and</w>
artic le</w>
al g
em erg
可 持续
du e</w>
突 破
正 在
tion s,</w>
n uc
with in</w>
on -
regi on
ar o
云 计算
or ing</w>
ex ist
al ,</w>
一 下
ti ci
以下 几
uni qu
。 总的来说
advan t
ti mi
ment s,</w>
measu res</w>
f ul
inv est
vi d
mo der
inf ra
资 金
al s,</w>
tran sp
we ver,</w>
evolu tion</w>
C on
in stitu
F or</w>
行 业
te n</w>
pre hen
f a
identi fy</w>
20 1
econ om
smar t</w>
n at
e vid
plat form
or ig
e ach</w>
制 定
re si
Ho wever,</w>
相 关
In ter
g eo
measu re
t ural</w>
spac e</w>
非 常
基 础
o us
ori th
收 集
de mon
d yn
各 种
ar ti
su stain
enti al</w>
传 统
o o
i es,</w>
de ter
alg orith
教 学
ne t</w>
气 候
通 信
the m
制 造
A s</w>
中的 应用
A I</w>
， 使
con cer
gra ph
无 人
风 险
p ur
降 低
A n
analy sis</w>
se qu
cel er
atu res</w>
mode l</w>
ex per
e le
， 包括
r e</w>
太 阳
com prehen
ment s.</w>
e p
时 间
technolog y,</w>
car b
a si
fir st</w>
consi der
com b
c us
cri tical</w>
识 别
aro und</w>
po pul
op timi
ma te
enab ling</w>
strate gi
char acter
软 件
y -
f ra
aim s</w>
它 们
uniqu e</w>
under stand</w>
promo ting</w>
heal th
p an
和 研究
模 式
Res ear
str eng
交 通
re cogni
tion al</w>
个 性
。 在
a d</w>
ab ilit
w s</w>
effici ent</w>
lim it
c are
mo un
基因 编辑
cre ating</w>
lear ning</w>
descri b
at ory</w>
1 0
w e</w>
re .</w>
成 本
al i
pl ac
l ong
性 。</w>
mac hin
me d
lo y
技术 的发展
bet ter</w>
ac celer
mar y</w>
b le</w>
E x
诊 断
me r</w>
ch em
bo th</w>
nat ural</w>
pl y</w>
partic les</w>
integr ation</w>
e qui
an g</w>
其 他
wh o</w>
elec tro
sim il
远 程
科技 的
Chin ese</w>
5 G
effec tive</w>
on d</w>
， 使得
模 拟
公 司
thre e</w>
prin ci
deta il
物 理
coll ec
proces s
ic s,</w>
ens uring</w>
r an
l es
a ut
M o
n s</w>
的 学习
tiv ity</w>
机 构
c lu
C o
advance ments</w>
h e</w>
实 时
environ ment</w>
， 帮助
建 设
Sci ence</w>
fic ial</w>
exam ples</w>
pow er</w>
d in
sh ap
p hi
ma k
dis cus
tion s.</w>
mo sph
comprehen sive</w>
research ,</w>
发 挥
ma j
b ro
城 市
理 论
攻 击
i l</w>
) ,</w>
tal ent</w>
in s</w>
at or
再 生
快 速
，科技 研究
更多 的
f ur
enterpri ses</w>
sa fe
我们 的
Technolog y</w>
softw are</w>
pro f
ear ly</w>
ma s
emp ha
system s,</w>
深 入
d s.</w>
med ical</w>
l ess</w>
mo st</w>
pre vi
污 染
助 于
ple ,</w>
fi ed</w>
st o
s '</w>
metho ds</w>
， 减少
功 能
情 况
ter s</w>
精 确
增强 现实
竞 争
proper ties</w>
个 人
t uring</w>
the n</w>
有 助于
knowled ge</w>
th ere</w>
str u
real -
* *
ch i
A r
me m
prac tic
shor t</w>
at mosph
pla y</w>
op port
s h</w>
c an
行 为
改 善
potenti ally</w>
a str
D N
p eo
C ould</w>
c ity</w>
behavi or</w>
机 制
ence .</w>
t al</w>
th in
a k
ti li
moder n</w>
t arg
num ber</w>
建 立
busin ess</w>
效 果
g e
re le
increas e</w>
en o
scal e</w>
s "</w>
fos si
l ec
with out</w>
之 间
marke t</w>
g rou
技术 可以
par ag
t on
gene tic</w>
H e</w>
不 仅
arg u
enhan cing</w>
phys ical</w>
t -
度 和
an y</w>
networ k</w>
collabor ation</w>
和 分析
exam ple</w>
as s
maj or</w>
dev ices</w>
year s</w>
le .</w>
rela ted</w>
医 生
rap h</w>
t an
serv ic
parag raph</w>
p ing</w>
性 能
s cop
技术 ：
brea k
f ol
deci sion
可 再生
g a
achie ve
iz ed</w>
进 展
tran si
mode ls</w>
in dic
er o
， 也
st ate
fiel ds</w>
是 一个
the or
impro ving</w>
nuc lear</w>
of ten</w>
resour ces</w>
ces .</w>
me as
mode l
al le
药 物
invol ves</w>
tiv en
sm all</w>
gra v
carb on</w>
方 向
y our</w>
d -
成 为
a f
mis sion</w>
re pres
是 什么
aliz ed</w>
promo te</w>
f t</w>
N ational</w>
转 化
患 者
fur ther</w>
exp an
， 这些
人 们
策 略
simil ar</w>
ess ential</w>
on line</w>
at trac
vi r
tive ly</w>
a moun
效率 和
在 线
， 而
mat ter</w>
op en</w>
inv es
c al
目 标
是 一些
sel f
f il
evid ence</w>
am ong</w>
。 因此
re por
ha d</w>
coun tri
改 进
v in
可以帮助 我们
应 对
存 储
ti vi
导 致
re cor
a y</w>
p tion</w>
i es.</w>
世 界
appro ach
I S
th ou
te st</w>
at t
T o</w>
dev ic
communic ation</w>
ac coun
import ant</w>
u ro
关 注
互 联网
d ro
还 可以
vie w</w>
univer se</w>
worl d</w>
di stan
s ing
参 与
effici ency</w>
ra ther</w>
u an
g res
ro ss</w>
Earth 's</w>
可再生 能源
n ess</w>
B i
e ds</w>
u d</w>
ent ,</w>
6 .</w>
system s.</w>
， 确保
to ol
dat a,</w>
sh ar
la y
l y.</w>
个 方面
t as
di d</w>
以 及
fun da
A R
st ,</w>
nec ess
comp on
poin ts</w>
en able</w>
的 重要
无人 机
st ing</w>
形 成
sen si
w in
研究 人员
y st
m s,</w>
团 队
pr ene
le ad
更好地 理解
cre ation</w>
-- --
wel l</w>
最 新的
system ,</w>
reg ar
pl an</w>
ma ss</w>
astr onom
中 心
posi tion</w>
u tili
t ?</w>
rang e</w>
c las
z ation</w>
, 00
采 取
tho se</w>
phys ics</w>
ig n</w>
关 于
sc en
技术 和
increas ed</w>
reduc ing</w>
materi al</w>
log y</w>
操 作
e ven</w>
自 然
深 度
成 功
rel ation
m u
cen tr
人工智能 和
ent ly</w>
对 环境
太阳 能
temper ature</w>
develop ment,</w>
c es,</w>
y m
sol ar</w>
ris k</w>
fic ation</w>
提供 更
存 在
re duce</w>
e th
ac ross</w>
prene ur
highligh ting</w>
大量 的
任 务
str ong</w>
ac tivi
er s.</w>
co s
t ation</w>
plan et
气候 变化
di se
b ack
artic le,</w>
in stru
en cour
重 大
潜 在
深 远
spec ies</w>
develop ment.</w>
ci r
Uni versity</w>
增 加
le g
领域 ，
re ac
perform ance</w>
industri es</w>
compu ter</w>
量子 计算
be li
选 择
a vi
res ol
as es</w>
驾 驶
自动 化
foc using</w>
co l
工 业
it ing</w>
pre v
en d</w>
un der</w>
n on-
uni ties</w>
fo st
at om
时 ，
20 2
tri c</w>
pat ent</w>
strateg ies</w>
il y</w>
e d,</w>
chem ical</w>
metho d</w>
数据 分析
li fe
c ent
ph eno
, "</w>
innov ation,</w>
e l</w>
equi p
techniqu es</w>
hum an
auth or
解决 方案
t 's</w>
applic ation</w>
D es
empha si
e i
和 应用
oper ation</w>
。首先 ，科技
方面 的
pheno men
al u
li k
tre at
ref ers</w>
计 划
know n</w>
取 得
fin an
analy ze</w>
获 取
结 果
传 感
。最后 ，
throu gh
e ts</w>
accur ate</w>
实 际
multi ple</w>
政 府
， 但
impro ved</w>
最 新
ent re
e vol
polic y</w>
A S
20 0
compu ting</w>
ap pli
al s.</w>
ta in
r .</w>
hi stor
strategi c</w>
han d
dist ribu
先 进
作 物
exam ple,</w>
推动 了
exp lo
性 的
空 间
机 会
serv ices</w>
comp ut
projec ts</w>
i f</w>
f ying</w>
。 同时
funda mental</w>
m illion</w>
l abor
ic ul
enab les</w>
loc al</w>
化 学
pro gres
individu als</w>
electron ic</w>
投 资
construc tion</w>
金 融
cont ra
tr y</w>
- based</w>
更 有效
生 态
entre preneur
ic k
稳 定
现 代
活 动
en ted</w>
arti ficial</w>
advant ages</w>
纳 米
lik ely</w>
capabili ties</w>
b al
ta k
已 经
bra in</w>
,00 0</w>
st ate</w>
over all</w>
ce ,</w>
re volu
in tro
detec t</w>
succes s
invest ment</w>
ent s,</w>
en ci
effor ts</w>
卫 星
re mo
produc tion</w>
e qu
contribu ted</w>
ta ke</w>
现 在
比 如
serv ice</w>
产生 了
self -
plat form</w>
sur face</w>
pow er
o x
是 在
vi su
serv ation</w>
游 戏
wa ys</w>
desig ned</w>
re s,</w>
ous ly</w>
comm on</w>
b lack</w>
L i
te les
dyn am
地 球
y :</w>
teles cop
enterpri s
emp loy
ch ain</w>
数据 的
research .</w>
ev alu
pattern s</w>
con di
水 平
str ic
ce i
scen ari
dar k</w>
priv acy</w>
等 。</w>
en ing</w>
结 合
科技研究 的
sustain able</w>
manufac turing</w>
到 了
effec ts</w>
system .</w>
D r.</w>
是 一种
sur ve
shi p
me ans</w>
fe atures</w>
po se</w>
特 别
use r</w>
issu es</w>
se t</w>
ful ly</w>
con sum
A l
ac t</w>
inclu des</w>
f lu
S .</w>
积 极
传感 器
交 易
to p
high er</w>
组 织
加 强
ra y</w>
inte gra
se r</w>
ic ally</w>
有 何
伦理 问题
以 上
， 实现
fun ding</w>
贡 献
aliz ation</w>
D i
fre qu
war ds</w>
ver y</w>
g en</w>
evolu tion
e p</w>
st u
comm er
we a
ex tre
a il
partic le</w>
increas ing</w>
achie ve</w>
monit oring</w>
艺 术
limit ations</w>
pla y
， 它
更 准确
系统 的
d om
考 虑
O n
experi ence</w>
cul tural</w>
algorith ms</w>
发展 的
优 势
体 系
dep end
和 增强现实
p u
h er
hi st
demon str
machin e</w>
engine ering</w>
认 为
respon se</w>
par tici
z es</w>
intellig ence</w>
法 规
th es
contribu tions</w>
ati v
，我们 可以
mi tig
Resear ch</w>
character is
g s</w>
com pl
防 止
ter m</w>
as ter</w>
peo ple</w>
法 律
增 长
sugges t</w>
provi ded</w>
加 密
。其次 ，科技
tech n
m ,</w>
highligh ts</w>
c am
R &
科研 人员
依 赖
交 流
are d</w>
Pro f
实 施
soci et
检 测
ve ment</w>
technolog y.</w>
G u
ur b
sion ,</w>
ser ve</w>
l l</w>
it u
stu di
exp ected</w>
) .</w>
orig in
is t</w>
的 问题
共 享
resul ts</w>
A mer
之间 的
ver se</w>
区块链 技术
in ten
differ ences</w>
D at
produc t</w>
Amer ic
一 步
condi tions</w>
学 科
man y</w>
bi g</w>
appli ed</w>
wh y</w>
ati ve
商 业
high- tech</w>
be come</w>
wor king</w>
as soci
challeng e</w>
busin ess
ati c</w>
j ust</w>
M ar
b ack</w>
ati c
pec i
or b
cel l
ation ?</w>
loc k
trans formation</w>
价 值
peri o
p ed</w>
le ver
decision -
al .</w>
以下几 个方面
sib ility</w>
m ine</w>
u tr
heal th</w>
透 明
c at
regar ding</w>
sec tor
ide a</w>
us ers</w>
ch e
领域的 应用
om e</w>
m y</w>
fost ering</w>
目 前
proces ses</w>
验 证
可以 在
individu al</w>
h u
sion al</w>
潜 力
个性 化
lo o
con dition
intro duc
dri ving</w>
buil ding</w>
s yn
exist ing</w>
是 否
men tions</w>
mate ly</w>
c ore</w>
differ ence</w>
diff icul
fo re
propos ed</w>
ther mo
out com
性 ，
vir tual</w>
sho w
角 色
In stitu
创 造
物 质
遗 传
pos sible</w>
排 放
grow th
家 居
传 输
的 科技
l and</w>
fra me
ess or</w>
ve l</w>
safe ty</w>
fol low
produc ts</w>
精 准
c ro
ance ,</w>
应用 于
ne ed
dat a
c enter
I o
社 交
R o
solu tions</w>
concer ns</w>
as si
streng th
long -
ev ed</w>
大数据 和
valu e</w>
revolu tion
hel ps</w>
H ig
necess ary</w>
es ti
案 例
是什么 ？</w>
提高 了
体 的
ne eds</w>
y "</w>
I mag
。这 种
typ es</w>
s ate
in ste
fac tors</w>
comb in
clo ud</w>
inclu de
适 应
de fin
bo d
trans form
co st
aff ect</w>
军 事
te am
or din
for ce</w>
de ep
addres sing</w>
U .
techn ical</w>
influ ence</w>
dat a.</w>
er e
d ra
a ir
qu es
ic s.</w>
进 一步
显 著
及 时
k ed</w>
educ ation</w>
ad op
： 通过
transp or
tiven ess</w>
M e
re ve
速 度
sk il
ch o
s )</w>
因 素
v o
pl er</w>
DN A</w>
protec t</w>
科技 的发展
t able</w>
person al</w>
leve l
spe ed</w>
V R
出 现
m ing</w>
aff ec
ur n
resol u
r ac
li mi
汽 车
s on</w>
experi ment</w>
fi t</w>
dri ven</w>
。 以下
p er</w>
cr yst
S u
做 出
hum ans</w>
behavi or
De velo
str y</w>
l es,</w>
t t
progra m</w>
include :</w>
cy ber
实 践
polic ies</w>
o wn</w>
high- quality</w>
新 型
pub lic
men ted</w>
m ilit
k ,</w>
ang u
. "</w>
的 创新
compl ex
因 为
a war
多 种
implement ing</w>
er -
手 术
min im
opport unities</w>
con sequ
mo b
boo k</w>
学生 的学习
ne utr
J o
请 解释
访 问
图 像
de f
人工智能和 机器学习
h ab
程 序
供 应
n ature</w>
desig n
analy si
e ar</w>
auth or</w>
hist ory</w>
at omic</w>
历 史
细 胞
培 训
robo ts</w>
analy zing</w>
面 临
探 测
tra ining</w>
enc ed</w>
可以 提高
调 整
lan d
describ ed</w>
， 同时
带来 了
有 许多
go al</w>
新 兴
it able</w>
gro und</w>
c are</w>
univer se.</w>
innov ation.</w>
， 促进
描 述
可 靠
C ol
生 命
。 再
ent s.</w>
和 创新
r ate</w>
ll ec
un g</w>
tool s</w>
time .</w>
生物 技术
re ach
f er</w>
b illion</w>
新 能源
bio logical</w>
培 养
time ,</w>
m ust</w>
invol ved</w>
finan cial</w>
例 子
H e
transp ar
an im
威 胁
大 大
thin k</w>
av ail
detec tion</w>
原 理
w at
ac ade
o re
重要 作用
te s,</w>
ch ain
at ors</w>
ag ain
或 者
rea ter</w>
prof es
fin ding</w>
sci ence,</w>
mechanis ms</w>
g as</w>
expla ining</w>
， 还
分 配
地 区
sing le</w>
be y
effici enc
L a
on ,</w>
智能 家居
cy c
ci ent</w>
E uro
rel ate</w>
条 件
人工智能 在
R& D</w>
方面 ，
帮助 我们
交 互
en s</w>
监 控
stud ents</w>
o ce
llec tual</w>
ex ten
M ic
s ha
st ar</w>
sci pl
associ ated</w>
ro n</w>
der s</w>
有 很
总 之
l angu
eth ical</w>
Prof essor</w>
。同时 ，
pri ori
deter mine</w>
k s,</w>
typ e</w>
to ge
re cei
integra ted</w>
标 准
di scipl
取得 了
prev ent</w>
i gh
al low</w>
protec tion</w>
U. S.</w>
科学 研究
s -
m s.</w>
countri es</w>
构 建
变 得
、 更
的 技术
投 入
inter net</w>
comm it
S o
Ear th</w>
作 为
t on</w>
sour ce</w>
训 练
可持续 发展
关 系
shar ing</w>
exper ti
内 容
提 出
op tical</w>
me dic
er 's</w>
meas ure</w>
cal cul
go als</w>
改变 了
In nov
sensi tive</w>
o ther
S T
sum mary</w>
fo und
again st</w>
， 对
范 围
k in
t in
o l</w>
molecul ar</w>
di men
cer tain</w>
o w
d ?</w>
有 着
star s</w>
facilit ate</w>
如何 影响
化 和
ra is
fossi l</w>
aut om
5 0
an cient</w>
S t
P ar
platform s</w>
con ver
量子 计算机
等 领域
rap id</w>
h er</w>
prac tical</w>
O p
规 模
环境 保护
per spec
evolution ary</w>
commun ity</w>
bi r
。总的来说 ，科技
ai m</w>
Imag ine</w>
。此外 ，科技
a ir</w>
虚拟现实 和增强现实
未来 的
thre at
sam e</w>
。 另
valu able</w>
si ze</w>
ris ks</w>
公 众
ent .</w>
bey ond</w>
限 制
detail ed</w>
A f
和 治疗
grav it
contribu ting</w>
speci fic
break through
通 常
wa ve</w>
leve ls</w>
I m
on es</w>
m al</w>
f le
ati s
In te
， 比如
发 生
to wards</w>
意 义
en ds</w>
techniqu e</w>
p ast</w>
ch arg
C O
深度 学习
intellig ent</w>
implement ation</w>
P le
sti ll</w>
hy po
sim pler</w>
proper ty</w>
Dat a</w>
r ing</w>
， 推动
自动 驾驶
vie w
diff er</w>
经济 发展
Hig gs</w>
涉 及
pho to
n or
te ,</w>
C en
observ ed</w>
eco system</w>
di ag
C R
pl as
ear th
g ain</w>
至 关
用户 的
力 学
产 权
避 免
sh are</w>
p ati
contro ll
b ur
all ,</w>
ac i
re ad
pri mary</w>
ap p
战 略
sur fac
publi sh
or por
F ur
部 分
urb an</w>
organ is
che mi
at or</w>
an n
。总的来说 ，
tak en</w>
风 能
智 慧
plan s</w>
deter min
are a</w>
ag e,</w>
B o
的 信息
se e
strateg y</w>
s ure</w>
proces sing</w>
专 业
。以下 是一些
ta ining</w>
discipl in
资源 的
p as
lin es</w>
pres ence</w>
low er</w>
获 得
H u
设备 和
多 个
互 动
er ed</w>
stud ying</w>
do wn</w>
也 在
ment ?</w>
descri be</w>
规 划
ref lec
o me
c lear</w>
G oo
previ ous</w>
no w</w>
J i
消 费
st re
temper atu
n o</w>
comp ared</w>
U n
Ple ase</w>
媒 体
ing :</w>
com ing</w>
连 接
rela tes</w>
diff ers</w>
U S</w>
。 它
语 言
介 绍
。例如， 通过
infra structure</w>
重要的 作用
影响 ？</w>
resour ce</w>
resi d
S ta
suppor ts</w>
econom y</w>
vi s
inves tig
abilit y,</w>
教 师
inte llectual</w>
co ordin
al -
测 试
大数据 分析
上 的
emerg ing</w>
ati ves</w>
核 心
共 同
technolog ies,</w>
re s.</w>
princi ples</w>
mis sion
竞争 力
建 议
requi re
con servation</w>
On e</w>
观 测
实验 室
sup ply</w>
form s</w>
科技 成果
partici p
cu sto
知识 产权
tic s,</w>
pro vin
f our</w>
environ ment.</w>
科技 对
ex hi
Inter net</w>
特 定
加 速
resul ting</w>
O b
milit ary</w>
sel ec
o s
hy dro
effec tively</w>
o s</w>
燃 料
tex t?</w>
es :</w>
en se</w>
基因 组
l at
， 特别
requi re</w>
ance .</w>
ac tive</w>
clu st
T i
然 而
ci vi
achieve ments</w>
er .</w>
co operation</w>
En g
- ray</w>
ter n</w>
for e</w>
fle xi
ab s
a s,</w>
直 接
n es
设备 的
s un
da mag
P h
更准确 地
mas sive</w>
buil d</w>
long- term</w>
eri c</w>
Goo g
requi res</w>
compan y</w>
an d
avi g
他们 的
c it
resolu tion</w>
phi c</w>
man i
文 化
定 期
rele v
log y,</w>
accur acy</w>
测 量
技术 来
保 持
mu ch</w>
di versity</w>
suppor ting</w>
手 段
progres s</w>
e asi
tim es</w>
previ ously</w>
min i
gravit ational</w>
achi eved</w>
多 样
其 中
融 合
wel l
iz ing</w>
o ,</w>
wea ther</w>
pla ys</w>
loc ation</w>
s in
gra du
ed .</w>
基 本
over come</w>
interac tions</w>
inter pre
f low</w>
elec tric</w>
e ment</w>
com men
问题 的
p ite</w>
得 到
复杂 的
so li
af ter</w>
就 业
structu res</w>
st a
道 德
iz ation</w>
expl or
W e
Institu te</w>
自 主
ox y
l eng
demon stra
consi st
A p
公 平
par t</w>
c le
都 是
疾病 的
传 播
industr y,</w>
inc orpor
P R
priv ate</w>
su res</w>
M E
应 该
全 面
a mic</w>
radi ation</w>
可以 提供
c la
n avig
sens ors</w>
sear ch</w>
low -
e 's</w>
场 景
se en</w>
a me
M a
A u
确 定
先进 的
wa ve
enci es</w>
shi ps</w>
priori ti
oc cur
d ens
现 象
效率 。</w>
技术 、
se a</w>
jo urn
in form</w>
expl ore</w>
amoun t</w>
S han
ma ted</w>
更 新
r ul
ol d</w>
d ron
sp ir
pro te
conduc ting</w>
b or
， 提升
无 法
applic ations.</w>
. ,</w>
数据 ，
基 于
更有效 地
preci se</w>
manufac tur
direc t</w>
c l
状 态
ex t
， 降低
N S
ul tra
S ome</w>
success ful</w>
enc es,</w>
co st</w>
an ti
预 防
mechanis m</w>
cul tiv
coun tr
2 )</w>
个性 化的
play ed</w>
la ser</w>
in depend
consequ ences</w>
技 能
ul ar</w>
ru p
respon sible</w>
L e
stri al</w>
sec ure</w>
repor t</w>
p ut
de li
打 印
分 享
imag e</w>
g reater</w>
智能 化
c ase</w>
分 布
b ar
ro b
practic es</w>
N o
studi es</w>
asi c</w>
和 发展
regi ons</w>
optimi ze</w>
特 征
满 足
el abor
d 's</w>
an ces
earth qu
ation :</w>
ac cording</w>
科技 和研究
micro scop
m ul
establish ment</w>
er r
m it
affec ts</w>
科学家 们
反 馈
。因此 ，
te sting</w>
m un
con ven
反 应
invol ve</w>
吸 引
In du
1 8
科技与研究 的
war d</w>
大 学
tr u
relation ship</w>
molecul es</w>
larg er</w>
ar c
Ne w</w>
详 细
太空 探索
m .</w>
imag es</w>
gen e</w>
contribu tes</w>
con fi
al ig
等 。
真 实
objec ts</w>
in 's</w>
il lu
identi fying</w>
记 录
意 识
targ e
rob ust</w>
ro c
op en
bod y</w>
清 洁
和 数据
structu re,</w>
peci ally</w>
inter n
巨 大的
organiz ations</w>
imple mented</w>
es pecially</w>
Ac ade
比 特
有很 多
specific ally</w>
n ex
采 用
过程 中
real- time</w>
me t
j i
interac t</w>
t le</w>
s ch
pro to
ing s,</w>
effec t</w>
main tain</w>
histor ical</w>
C E
美 国
ste ps</w>
s ym
mat ter
ele ments</w>
我们 可以
受 到
升 级
toge ther</w>
difficul t</w>
Uni ted</w>
数字 化
丰 富
se par
do cu
to p</w>
re commen
pro duce</w>
stan t</w>
il d
fe ed
cre ated</w>
密 码
动 力
dynam ics</w>
，从而 提高
pu t</w>
ho u</w>
distribu tion</w>
Fur thermo
专 家
ing ?</w>
in -
imag ing</w>
extre me</w>
characteris tics</w>
Furthermo re,</w>
tiv es</w>
po li
measure ment</w>
be fore</w>
我们 能够
mob ile</w>
dri ve</w>
al o
Innov ation</w>
1 )</w>
galax ies</w>
elabor ate</w>
breakthrough s</w>
K e
part ner
it .</w>
行 星
integr ating</w>
P ri
3 0
是 如何
shi ft</w>
enhan ced</w>
activi ties</w>
G re
7 .</w>
， 让
电 池
m il
galax y</w>
ass ess
knowled g
h ic
fac tor
f aster</w>
e ?</w>
1 .
医疗 服务
the ore
regi on</w>
W or
vi sion</w>
ri sk
O ver
粒 子
I f</w>
technolog ies.</w>
li ving</w>
自 己
改 革
institu tions</w>
impac ts</w>
等 方面
工具 和
sur ro
servic es,</w>
Resear ch
总之 ，
leg al</w>
ex plan
ar chi
al tern
3 D
所 有
外 ，
和 预测
li qui
a ero
E inste
虚拟现实 技术
com par
business es</w>
b asic</w>
生产 效率
poin t</w>
off er</w>
gener ation</w>
食 品
化 石
transi tion</w>
cos mic</w>
wa ves</w>
inform ed</w>
conduc ted</w>
standar ds</w>
or s,</w>
compon ents</w>
ti tu
engine er
electr ons</w>
trans fer</w>
skil ls</w>
resour ces,</w>
exist ence</w>
bene fit</w>
要 求
修 复
on duc
m a</w>
的 环境
宇宙 的
天 文
ac tions</w>
， 提供
特 性
materi als,</w>
B ei
pol lu
ma them
Wh en</w>
设计 和
ric ul
ref er
in ,</w>
high ly</w>
dist inc
co lli
ate ly</w>
amoun ts</w>
ag ricul
的 生活
当 前
requi red</w>
ev ents</w>
establish ed</w>
5 0</w>
极 大
univer se
predic t</w>
co ver</w>
G P
运 行
绿 色
t un
g l
contro l
b lock
atom s</w>
ac tiv
P o
N or
2 .
sp i
phys ics,</w>
p s,</w>
fac ed</w>
enterpris es,</w>
相 互
ve hic
tu re,</w>
si de</w>
qu al
dev ice</w>
Shan gh
wi de</w>
s w
rec ent</w>
mitig ate</w>
l es.</w>
gro und
ex pres
移 动
由 于
to tal</w>
limi ted</w>
la ws</w>
a der</w>
相关 的
希 望
为 了
compu ter
allow ed</w>
av o
S ou
高 质量
常 见
ti z
r y</w>
influ enced</w>
at ter
漏 洞
建 筑
便 捷
产生了 深远
ul ner
establi sh</w>
dyn amic</w>
aut onom
Bi g</w>
- 1
pos ed</w>
bal ance</w>
as se
身 份
社交 媒体
和 处理
deci sions</w>
bi li
s al
bro ader</w>
mo d
ll ite</w>
health care</w>
首先 ，
succes s</w>
这 一
energ y,</w>
cen ter</w>
高效 的
手 机
供应 链
proble ms</w>
a w
I P
： 这
推 进
industri es,</w>
de gre
adap t</w>
F o
阶 段
体 现在
univer si
pur su
mi gr
in stan
electro n</w>
等 ，
保 障
产 量
yo ung</w>
origin al</w>
fe w</w>
3 )</w>
wh ere
ti s
sub stan
respon d</w>
i lo
equip ment</w>
cap ac
不 可
v ulner
mo tion</w>
gu i
da y</w>
，以 便
任 何
acces sible</w>
inform ation,</w>
sour ces</w>
cel ls</w>
。 然而
up gra
foc used</w>
3 D</w>
如何 帮助
star tu
plan ets</w>
la test</w>
st s,</w>
recogni tion</w>
enti on</w>
achie ving</w>
Wh ile</w>
standar d</w>
contra st,</w>
，以 确保
设 施
tr ends</w>
st ates</w>
qu ick
隐私 保护
强 大的
medi a</w>
m or
： 在
impro ve
educ ational</w>
， 将
能 否
推 广
l ong</w>
frequ ency</w>
ed ge</w>
at eri
研究 中
消费 者
普 及
和 管理
re main
proces s.</w>
manage ment,</w>
experti se</w>
atmosph eric</w>
科技 进步
sion .</w>
effec tiveness</w>
Io T</w>
( S
y ear</w>
mani pul
M an
能 量
Bei j
x im
qu ar
foc uses</w>
f ri
e y
as pec
w r
l it
分 子
sec ond</w>
repres ent
ne r</w>
is e</w>
fos ter</w>
experi mental</w>
概 念
19 9
讨 论
的 需求
执 行
农 作物
univer se,</w>
grou p</w>
问题 ，
研究 和
con fir
黑 洞
un ding</w>
region al</w>
han d,</w>
ag e.</w>
科技 发展
se mic
de part
更好 的
技术 ，可以
r en
mak es</w>
le ?</w>
frame work</w>
competi tive</w>
as .</w>
鼓 励
where as</w>
we ap
semic onduc
mathem atic
fiel d.</w>
direc tly</w>
decision- making</w>
be hin
创 建
relev ant</w>
la w
gra phic</w>
collec tion</w>
tu ally</w>
ri ght</w>
remo te</w>
m an</w>
k y</w>
b ul
X i
M R
H is</w>
10 0</w>
it s,</w>
en sures</w>
abilit y.</w>
长 期
有 什么
产品 的
func tion
evol ved</w>
ab le,</w>
plac e</w>
sate llite</w>
de ep</w>
a i</w>
stor age</w>
real- world</w>
cor rec
cont ent</w>
转 型
re spec
ing s.</w>
func tion</w>
遥 感
扮 演
便 利
year s,</w>
progra m
main taining</w>
程 度
物理 学
前 景
te d,</w>
preci sion</w>
k s.</w>
ing -
fi ve</w>
approach es</w>
平 衡
to -
resul t</w>
ac tivity</w>
空 气
gener al</w>
enab led</w>
en ces.</w>
de n</w>
Af ric
跨 学科
状 况
和 安全
ulti mately</w>
sha red</w>
se e</w>
he at</w>
CR IS
在 科技研究
wor ks</w>
up d
fa il
ar d</w>
ac tion</w>
Americ an</w>
大 规模
year s.</w>
s itu
ev ent</w>
describ ing</w>
ch ing</w>
Chin a,</w>
火 星
应用 程序
以下几个方面 ：</w>
sur vi
l ying</w>
cer tain
v ast</w>
ser ies</w>
off ers</w>
for ce
am e</w>
极大 地
z h
st atis
mo ve
me an
b est</w>
观 察
公 共
re fin
重 点
devic es,</w>
consider ed</w>
comp are</w>
accoun t</w>
研究 成果
spec tro
ph ase</w>
p e</w>
networ ks</w>
expan sion</w>
d g
sti mul
interac tion</w>
electr ical</w>
Gu ang
的 方法
在 教育
区 域
fre e</w>
fore ign</w>
e li
w n
stre am
li c</w>
langu age</w>
b a
对 社会
pres sure</w>
environ ment,</w>
F i
to ol</w>
d en
ci ties</w>
CRIS PR
inform ation.</w>
do m</w>
Uni vers
mo di
behin d</w>
An t
如 果
well -
observ ations</w>
nex t</w>
monit or</w>
employ e
applic ations,</w>
气 体
患者 的
其次 ，
到 的
sa ur
reduc ed</w>
ing "</w>
growth .</w>
engine ers</w>
沉 浸
power ful</w>
peri od</w>
的影响 。</w>
tas ks</w>
i s,</w>
开 始
theore tical</w>
facilit ating</w>
distan ce</w>
Ant arc
th s</w>
m el
liqui d</w>
graph y</w>
g or
es "</w>
diag no
S pac
越 来
传统 的
d ru
consi der</w>
con centr
alle r</w>
， 因为
越来 越
来 源
shap e</w>
pa per
initi atives</w>
exhi b
ag ed</w>
P lan
re ality</w>
in ed</w>
飞 行
相 应
um ,</w>
chang ing</w>
au di
有 所
research ?</w>
an ,</w>
advance ment</w>
过程 中，
心 理
univer s
pl ies</w>
Eng ine
和 技术
兴 趣
um -
mechan ical</w>
l ab
de b
cy ber</w>
attrac t</w>
ap er</w>
ta king</w>
lear n</w>
指 导
work ,</w>
te le
t y,</w>
publish ed</w>
h al
chang e.</w>
ative ly</w>
F ac
A s
责 任
收集 和分析
j u
discover ed</w>
civi li
centr al</w>
b ers</w>
起 着
创 业
v al</w>
spec tr
sm aller</w>
ref l
mini str
i so
ext inc
b ility</w>
1 00
流 程
性 。
tr ack</w>
se tt
no vel</w>
jec t</w>
hab it
ci d
acade mic</w>
： 随着
泄 露
当 然
工程 师
促进 了
wi de
serv ing</w>
Cen ter</w>
学 术
z hou</w>
theor ies</w>
st able</w>
s tic
proces s,</w>
dom es
Over all,</w>
Develo p
灾 害
sc ap
m b
an ts</w>
的 依赖
life .</w>
开发 出
fer ence</w>
f ar
U S
经 验
的 进步
望 远
不同 的
recor d</w>
d ing,</w>
转化 为
effec tive
di verse</w>
collabor ative</w>
Euro pe
1 0</w>
还 可以用于
接 受
cir cu
auth ors</w>
R i
展 示
for ces</w>
discover ies</w>
。 随着
c li
W i
望远 镜
issu e</w>
grow ing</w>
材料 的
农业 生产
plan et</w>
he av
establish ing</w>
cul ture</w>
， 需要
质量 和
技术的 应用
larg e-
detail s</w>
continu ous</w>
aspec ts</w>
人 的
z one</w>
re al</w>
progra ms</w>
is m</w>
S yste
的 主要
引 发
revolution ize</w>
f low
emphasi zes</w>
deep er</w>
are :</w>
6 0
潜在 的
如何 利用
。再 者
gu id
experi ments</w>
c um
c ra
DN A
。最后 ，科技
on .</w>
ci tiz
经济 的
变得 更加
下 ，
ne g
in e,</w>
expl oring</w>
evalu ation</w>
der al</w>
cent ur
brea king</w>
ation s?</w>
废 物
targ et</w>
as sum
ar t</w>
a ver
S ch
visu al</w>
treat ment</w>
t s?</w>
process es,</w>
or der
fo od</w>
问题 。</w>
课 程
land scap
W ith</w>
P re
M ac
" ,</w>
管理 和
s tic</w>
meas uring</w>
cam er
Research ers</w>
经济 增长
的 方式
t ons</w>
industr y.</w>
hypo thes
总 结
ti ce</w>
oxy gen</w>
mis sions</w>
experi ences</w>
en e</w>
cyber security</w>
commit ment</w>
c all
、 智能
neutr in
ab o
，特别 是在
防 御
运 动
thou ght</w>
se ly</w>
mo ving</w>
mar ine</w>
en ding</w>
bo di
al titu
al ing</w>
维 护
全球 化
lead er
e u
lever aging</w>
form ed</w>
fiel d,</w>
ag re
寻 找
完 成
发挥 着
stric t</w>
oc cu
o xi
follow ing</w>
针 对
敏 感
sh e
e ve</w>
coun ter
clas s
， 能够
princi ple</w>
fri end
de dic
as es,</w>
S hen
提供了 新的
sin ce</w>
ri ghts</w>
这 种
我们 对
targe ted</w>
ro o
r yp
hol e</w>
fac ili
avail able</w>
Q uan
土 壤
和 服务
wh e
stan ce</w>
quan ti
ill ance</w>
保 证
企业 的
也 可能
num er
fo o
enterpri se</w>
chang e,</w>
L abor
( C
航 空
super nov
shap ing</w>
mo ve</w>
la w</w>
is h
connec ted</w>
也 是
te s.</w>
si bili
l ine
ca used</w>
ast ro
恶 意
v es,</w>
sec tor</w>
cro s
complex ity</w>
' t</w>
星 系
介绍 一下
之 一
su itable</w>
o -
me tr
ide as</w>
analysi s,</w>
process es.</w>
deta il</w>
custo mer</w>
con su
b on
I C
s ite</w>
reli able</w>
popul ation</w>
ne ural</w>
an om
I T
航天 器
篡 改
我们的 生活
性 质
位 置
solu tion</w>
sign als</w>
ques tions</w>
me ter
gre en</w>
Acade my</w>
技术 ，如
创新 和
农 民
z on
mo vement</w>
m illi
le -
cap ture</w>
br an
的 工作
性 、
per form</w>
n ing,</w>
a ?</w>
S e
旨 在
si lic
la un
kin d</w>
fo rec
ac qui
T o
vi de
need ed</w>
ch a
cel l</w>
的 效率和
数据 安全
和 社会
Pro vin
激 光
secur ity,</w>
co sts</w>
argu es</w>
的 准确
没 有
tur n</w>
t "</w>
me ter</w>
S ec
报 告
几 个
ob serve</w>
environ ments</w>
ca using</w>
Bi o
的 使用
总的来说 ，
it ,</w>
i an</w>
exper ts</w>
研究 者
更 高
明 确
ther e
surve illance</w>
in t
devic es.</w>
comple te</w>
commer ci
S tan
内 部
projec t,</w>
off ering</w>
ex change</w>
cos mo
altern ative</w>
环境 问题
开 放
industri es.</w>
量子 比特
尤 其
tu re.</w>
fin d</w>
el s</w>
e "</w>
cont ain
Mic ro
me te
预测 和
生物 学
当然 可以
plan ning</w>
lo ss</w>
large- scale</w>
gu ide
capabili ties,</w>
温 室
ther ap
sec on
rap id
ong o
it y?</w>
dis rup
Sci enti
相应 的
最 近
u an</w>
ther mal</w>
servic es.</w>
s ted</w>
be g
archi tec
这 个
。另 外，
un certain
re ach</w>
is tic</w>
innov ations</w>
controll ed</w>
clas si
awar en
项目 的
造 成
st ability</w>
can not</w>
温 度
每 个
inter fac
fiel ds,</w>
cor por
co oper
在 医疗
中的 作用
v an
labor atory</w>
eng age</w>
de m
de ,</w>
I T</w>
视 频
continu e</w>
co ol
还 有
生物 技术在
p aper</w>
evolu tion.</w>
c ut
age ment</w>
吗 ？</w>
li es</w>
discus sed</w>
Pro vi
I D
A no
学习 和
员 工
vie ws</w>
inter es
consider ing</w>
大量 的数据
原 子
信息 的
tern al</w>
stud y's</w>
speci al</w>
main ten
L E
理解 和
主要 体现在
ri se</w>
pres ent</w>
娱 乐
发挥 了
中 提
si ve
intern al</w>
condition s.</w>
，例如 通过
公 正
ing u
disciplin ary</w>
decision- mak
X -ray</w>
负 面
更 深入
大 气
th ,</w>
robo t</w>
N AS
， 我
的 挑战
激 发
推 荐
si zed</w>
nuc le
capabili ties.</w>
3D 打印
的 效率
影响 。</w>
surro unding</w>
radi o</w>
me et</w>
educ ation,</w>
消 耗
就 是
up on</w>
se ts</w>
re ly</w>
oxi de</w>
or der</w>
dimen sional</w>
de man
cla im
完 善
地 位
协 作
sugges ting</w>
atmosph er
---- ----
- driven</w>
有效 的
强 化
theor y,</w>
so und</w>
quick ly</w>
feed back</w>
esti mated</w>
pat ents</w>
oce an</w>
o saur
et y</w>
S un
导 航
typ ically</w>
structu re.</w>
in t</w>
Ph ys
，提高 了
意 味
加 快
we b
health care
enti re</w>
back ground</w>
appro xi
Goog le</w>
F ir
Develop ment</w>
找 到
意味 着
rel ation</w>
profes sional</w>
instan ce,</w>
desig ning</w>
artic le?</w>
a y
Jo h
定 位
业 务
under lying</w>
remain s</w>
ne l</w>
metho ds,</w>
领域 中
sp ati
k .</w>
inc enti
ation "</w>
ap pe
it 's</w>
autonom ous</w>
P resid
3 .
合作 ，
sph er
pro pose</w>
dep loy
combin ation</w>
Inter national</w>
1 2
化石 燃料
w rite</w>
pro ce
organ ic</w>
n ,</w>
ev en
emerg ency</w>
do wn
conduc t</w>
compan y's</w>
challeng es,</w>
advan cing</w>
Q u
A P
请 描述
分析 和
ther n</w>
protec ting</w>
p it
lay er</w>
i ght</w>
c ause</w>
atmosph ere</w>
F e
Europe an</w>
形 式
基因编辑 技术
创新 的
信 号
。这 一
phys ics.</w>
measure ments</w>
ho me</w>
electro magnetic</w>
countr y's</w>
E S
，科技 与研究
请解释 一下
综 合
区块链 技术在
scenari o</w>
res s</w>
outcom es</w>
initi al</w>
efficienc y,</w>
am in
- C
集 成
效 益
worl d.</w>
thou gh
sta ke
gener ate</w>
fe atu
ad ditional</w>
神 经
广泛 的应用
天文 学
专 利
val id
mi d
initi ative</w>
beli eve</w>
， 即
灵 活
恒 星
temper atures</w>
commer cial</w>
com es</w>
approxi mately</w>
al ong</w>
ac ks</w>
Wor l
用户 体验
合 理
人工智能 的
一 项
standar di
o th
jo b</w>
ing 's</w>
curr ently</w>
com position</w>
Z h
系统 和
强 调
sen se</w>
re view</w>
evolu tion,</w>
earthqu a
aff ected</w>
S ME
E M</w>
行 动
系 列
协 同
p us
optimi zing</w>
Quan tum</w>
4 0
能力 。</w>
演 化
te d.</w>
suppor ted</w>
pur pose</w>
me try</w>
ma p</w>
涉及 到
事 件
wave leng
te .</w>
ste ll
softw are
regul atory</w>
pos sibility</w>
per cep
comput ational</w>
ate ,</w>
ac y,</w>
和 资源
v ac
stake hol
st om
sign al</w>
regul ations</w>
proble m</w>
i on
， 它们
揭 示
大数据和 云计算
orig in</w>
life ,</w>
ha ving</w>
dem and</w>
consu mer</w>
诊断 和治疗
垃 圾
各 个
enc ing</w>
cap able</w>
ation 's</w>
ab le.</w>
语 音
特 殊
ment 's</w>
explor ation</w>
enc ryp
confi d
ch im
bar ri
Shangh ai</w>
Mo de
机器学习 算法
减少 对
u r</w>
govern ance</w>
dat ab
consist ent</w>
compu ters</w>
coll ect</w>
b in
ag encies</w>
网络 攻击
相 对
教育 和
差 异
st -
direc tion</w>
au to
， 例如，
浪 费
授 权
恢 复
客 户
tion ?</w>
oper ational</w>
hel ped</w>
es tim
demonstr ating</w>
ce .</w>
care er</w>
accur ately</w>
更有效 的
分 类
v es.</w>
loc k</w>
ho use</w>
f ron
detec ting</w>
deci sion</w>
T ra
De part
8 0
能力 和
步 骤
v it
strength ening</w>
encour aging</w>
descri ption</w>
con clu
pattern s,</w>
n ess
lin ed</w>
gi ven</w>
ch ild
E lec
7 0
驱 动
说 明
此外 ，
您 可以
处理 和
动 物
wa st
introduc ed</w>
high- level</w>
cir cul
I s
Ano ther</w>
5G 网络
科研 成果
清洁 能源
tra de</w>
te ach
streng then</w>
speci alized</w>
ne w
lo r</w>
explan ation</w>
es s.</w>
ene w
D ig
只 是
posi tive</w>
har d</w>
dens ity</w>
condition s,</w>
con trac
challeng ing</w>
astronom ers</w>
I ts</w>
被 用于
表 现
的 关键
政策 制定
主要 包括
universe 's</w>
state ment</w>
sa f
multi -
g am
dec reas
R N
" The</w>
（ 如
质量 。</w>
tal ents</w>
stud y,</w>
phenomen on</w>
organis ms</w>
it s.</w>
imple ment</w>
found ation</w>
el l
ar s</w>
al loc
，这 种
，这 对于
视 觉
y s.</w>
u e</w>
domes tic</w>
自然 语言
早 期
tex t.</w>
super conduc
predic tions</w>
dom in
cros s-
B u
论 文
produc ed</w>
highligh ted</w>
eco logical</w>
V R</w>
5 G</w>
类 型
科技研究 在
在 于
压 力
shi f
objec tives</w>
h ear
e ding</w>
block chain</w>
S te
In formation</w>
远程 医疗
前 沿
telescop e</w>
str ong
s o</w>
profes sion
me tal</w>
ex trac
表 面
精 度
的安全 性和
方法 和
多种 方式
vi br
syn thes
spati al</w>
semiconduc tor</w>
se is
ex ternal</w>
eli min
co de</w>
4 .
： 首先，
识别 和
机 械
具有 重要
ut e</w>
sate lli
pol y
ch ed</w>
： 人工智能
量子 力学
元 素
人 体
observ ation</w>
追 踪
的 ，
和 环境
人类 的
sec tors</w>
ri gh
rel ativ
p ping</w>
le 's</w>
i on</w>
extre m
app ear
al 's</w>
G er
) :</w>
背 景
的影响 是
治 理
si z
func tional</w>
fiel ds.</w>
acceler ating</w>
自己 的
监 管
思 维
wast e</w>
them .</w>
pres ented</w>
long er</w>
处理 和分析
win d</w>
use ful</w>
pre p
m us
hi m</w>
安全 的
y s,</w>
ta x</w>
har d
adap t
Im ple
H igh
某 些
secur ity.</w>
r ing
ple 's</w>
oper ations</w>
character ized</w>
Co un
和 优化
spe ec
sim ple</w>
pati ent</w>
grou ps</w>
g ain
d ou
J in
黑 客
破 坏
的 ？</w>
relation ships</w>
rel atively</w>
ne uro
illu str
ad ,</w>
我 国
perspec tive</w>
o .</w>
fe deral</w>
des pite</w>
cit y's</w>
abs or
0 .
量子 通信
纠 缠
上 ，
v es
tra vel</w>
propos es</w>
person alized</w>
gre en
ad ministr
accoun t
错 误
ti al</w>
metho do
ev es</w>
an e</w>
ac cep
T el
显 示
广泛 应用
可以 根据
success fully</w>
ongo ing</w>
la ter</w>
i sts</w>
di ver
class ical</w>
G o
B e
B ased</w>
有效 地
su ff
s po
cat aly
adv oc
Des cri
精确 地
研究 中的
生 成
好 的
trans mission</w>
tis su
form ul
e ver
discus s</w>
bo un
Presid ent</w>
C re
C an
B ra
非常 广泛
评 价
的 新
更 为
去 中心
st ay</w>
planet ary</w>
pl ying</w>
ou gh</w>
hydro gen</w>
al ize</w>
aim ed</w>
abili ties</w>
H ere</w>
A si
适 合
还 可以通过
安全 性
和 生物
中国 在
system 's</w>
sibili ties</w>
par ame
identi fied</w>
defin i
的 “
探测 器
和 使用
sci ence.</w>
resour ces.</w>
re strial</w>
r ati
interac tive</w>
integr ate</w>
ic ,</w>
challeng es.</w>
acceler ate</w>
" ?</w>
， 增强
statis tical</w>
oper ate</w>
objec t</w>
ma xim
environ ments.</w>
distinc t</w>
as ing</w>
迅 速
等 。这些
响 应
phys ici
enterpris es.</w>
consum ption</w>
c ate
Sou th</w>
Dig ital</w>
1 ,</w>
难 题
poli tical</w>
me ters</w>
ligh t,</w>
l ation</w>
is h</w>
， 如何
范围 内
whe ther</w>
war ming</w>
th ir
ship ,</w>
rea d</w>
r enew
clo se</w>
are as,</w>
J ap
符 合
科学 的
技术的 进步
年 ，
发 电
sens or</w>
require ments</w>
refl ect</w>
re -
pho ton
ne arly</w>
hol es</w>
b l
S im
注 意
支 撑
感 知
sol ve</w>
ro r</w>
pat tern</w>
mil est
mathematic al</w>
m ess
g las
da ily</w>
cap ital</w>
规 范
培 育
克 服
z e
technolog y?</w>
s y
ome n</w>
es s,</w>
demonstr ate</w>
A t
1 5
巨 大
大数据和 人工智能
动 态
。 其中
prioriti ze</w>
extrem ely</w>
er y</w>
dat ing</w>
Re g
Inte llig
D ar
精 神
n ar
f fic</w>
dise ase</w>
b an
P er
A T
， 其
的 能源
基础 设施
tr ust</w>
there by</w>
chemi str
break through</w>
aver age</w>
advant age</w>
Descri be</w>
监测 和
沉浸 式
地 方
rapid ly</w>
projec ts,</w>
nes s,</w>
mi r
m al
gui de</w>
be coming</w>
ac tively</w>
的 风险
ver i
r un
instru ments</w>
engineer ing,</w>
ann u
an 's</w>
，以 提高
合 约
vol um
thou gh</w>
p ,</w>
infra structure,</w>
demonstra tes</w>
an ces</w>
硬 件
特 点
回 收
materi als.</w>
im plies</w>
friend ly</w>
er s'</w>
身份 验证
的 高
教 授
rou gh</w>
reduc tion</w>
mi x
ga p</w>
flexi ble</w>
compan ies,</w>
技术 也
simul ations</w>
sho ws</w>
reli ability</w>
me tric</w>
S peci
Io T
A 's</w>
） ：
方 便
引 力
可以 更
por t</w>
per cent
grav ity</w>
es cop
concep ts</w>
a o</w>
Tel escop
H ong</w>
， 形成
武 器
效 应
国际 合作
可 视
tho us
t ting</w>
re form</w>
neg ative</w>
f l
cut t
cost -
Einste in's</w>
部 门
的 情况
用 来
生物 科技
海 洋
or ,</w>
lead s</w>
gen es</w>
es tern</w>
cu stom
br ing</w>
a th
V i
P ol
掌 握
往 往
开发 新的
tra ve
reli ance</w>
i um</w>
efficienc y.</w>
econom y.</w>
运 输
请 总结
to o</w>
simul ation</w>
proper ties.</w>
con sci
有所 帮助
数据 和
数 量
可以 使用
值 得
pol ar
mechan ics</w>
encour age</w>
addres ses</w>
ad ju
Worl d</w>
T ran
日 常
具体 的
tion ing</w>
st atu
phys ic
infra red</w>
d ge</w>
as es.</w>
M il
和 挑战
on s,</w>
h or
ent ang
ear li
distan t</w>
connec tion</w>
author ized</w>
Ji ang
Com mun
C lo
2 ,</w>
tiv ity,</w>
th ri
speci es.</w>
res t</w>
region .</w>
j ob
ing- edge</w>
er t</w>
M O
革 命
区块链 技术的
会 议
bo son</w>
asse mb
相 比
tor s,</w>
pol ici
ne ar</w>
independ ent</w>
conven tional</w>
F or
Earth .</w>
电 动
可能 导致
可以 利用
具 备
transpar ency</w>
trac king</w>
tra ffic</w>
s cre
read y</w>
pre ven
demonstra ted</w>
d on
I B
C ar
2 0</w>
组 成
直 观
更好地理解 和
新 技术
个人 信息
vi sible</w>
pre fer
of f</w>
do c
coll ected</w>
F in
D uring</w>
，可以 帮助
起 源
装 备
甚 至
spac e,</w>
sim pli
platform s,</w>
mar k
growth ,</w>
g ri
at er
速 度和
科研 机构
天 气
fossi ls</w>
form ing</w>
Ar c
过程 中的
至关 重要
发展 。</w>
充 分
修 改
threat s</w>
impro vement</w>
design ,</w>
astronom ical</w>
G al
E M
学生 的
基 金
proble m
partic les,</w>
ex o
Ob serv
C am
车 辆
起 到了
表 明
碳 排放
现 有
政策 和
您 的
基因 工程
和 其他
储 存
u es</w>
te st
se di
re stric
percent age</w>
ment ation</w>
in tr
e very</w>
develop ment?</w>
comput ing,</w>
Stan dar
O ff
G rou
航空 航天
疫 苗
电 力
就业 机会
一 系列
y uan</w>
tu res</w>
fi es</w>
energ y.</w>
co lor</w>
资源 和
教育 的
the tic</w>
ra tes</w>
model s,</w>
mode ling</w>
leader ship</w>
capac ity</w>
1 4
科技 如何
机 遇
数 学
和 人工智能
ra ys</w>
p ic
identi ty</w>
d ust</w>
Beij ing</w>
可能 的
发展 ，
sp in</w>
scenari o
monit or
easi er</w>
e mo
cutt ing-edge</w>
c ent</w>
addres sed</w>
高 级
中 扮演
sol ving</w>
rele ase</w>
ra d
ph one</w>
man aging</w>
iso top
i a</w>
dist ingu
clo ud
cap it
author 's</w>
， 或者
预 警
面 对
请 介绍一下
规 律
科技研究 中的
有何 影响？</w>
合 成
vol can
tr uc
si tes</w>
lever age</w>
ing ly</w>
indic ating</w>
in st
competi tiveness</w>
ch es</w>
ac y.</w>
En erg
社 区
火 箭
可能 性
ver s</w>
utili zing</w>
pi on
occu r</w>
ji ang</w>
guide lines</w>
govern ments</w>
cum ul
chemi stry</w>
Ne twor
E R
Depart ment</w>
的 作用
容 易
可以 为
医疗 健康
一 定
speci es,</w>
is ol
di sp
a -
Spac e</w>
S tu
，使 其
有 望
w omen</w>
ste p</w>
orig ins</w>
m erg
compon ent</w>
com po
at o
然 后
效果 。</w>
un g
n ers</w>
n el
migr ation</w>
ever y
eng aging</w>
cryst al</w>
con f
ch ro
call ed</w>
adop tion</w>
Des pite</w>
( P
， 避免
等 方式
serv ed</w>
regul ar</w>
phenomen a</w>
or s.</w>
o logical</w>
inter est</w>
indic ates</w>
damag e</w>
anim al</w>
Provi de</w>
C )</w>
进 程
度 。</w>
在 全球
体验 。</w>
intellig ence,</w>
din osaur
： 科技
， 有助于
辐 射
提出 了
扩 展
制造 业
分布 式
也 是一个
war f
ut ron</w>
tu re
numer ous</w>
k 's</w>
ex tr
concer n
avo id</w>
4 )</w>
( N
，并 且
精确 的
相互 作用
so ph
qual ity,</w>
qu b
las t</w>
exhib it</w>
empha sis</w>
earthqua ke</w>
dis aster</w>
cyc le</w>
ch ron
Ne w
8 .</w>
1 3
离 子
的发展 趋势
开 展
可以 推动
原 则
力 量
tic s.</w>
st ore</w>
so phi
s ke
outcom es.</w>
nano technology</w>
im mer
competi tion</w>
awaren ess</w>
S )</w>
N an
，同时 也
， 保护
运 营
治疗 方案
pri mar
pan ze
esti al</w>
d ate</w>
al ign</w>
CRISPR -C
CRISPR-C as
C ong
自然语言 处理
职 业
等 ，这些
有 限
循 环
引 入
常见 的
定 制
在 科技与研究
中 小
ta ilo
robo tics</w>
recommen d
m ed</w>
li st</w>
gre at
con stan
智能 手机
在 科技
。然而 ，
wi des
sam ples</w>
minim ize</w>
eo us
chim panze
Ad van
路 径
对环境 的
器 官
universi ties</w>
ti es?</w>
renew able</w>
man age</w>
gh t
geo logical</w>
beli eves</w>
behavior ,</w>
试 验
疗 法
ther ,</w>
loc ks</w>
high- resolution</w>
entrepreneur ship</w>
ateri als</w>
( e
， 是
完 整
地 理
商 务
光 学
与 其他
we ak
sc ill
proce du
predic ting</w>
p lo
institu tions,</w>
gener ated</w>
enc y,</w>
def ense</w>
coun try</w>
Joh n</w>
C T
A R</w>
- like</w>
** :</w>
，如 果
结构 和
努 力
人工智能 、
wides pre
r ich</w>
me th
f am
emphasi zed</w>
emerg ence</w>
easi ly</w>
dron es</w>
cre di
con stant</w>
R us
E P
， 尤其
测 序
指 标
产品 和服务
。再者 ，
tro p
telescop es</w>
t y.</w>
sam ple</w>
primar ily</w>
observ ing</w>
medic ine,</w>
clo sely</w>
altitu de</w>
S mar
问题 。
遵 守
社会 的
生 长
v ar
t ac
s ou
res on
pa th
inter ne
fre e
expan ding</w>
a way</w>
进 入
答案 :</w>
未来 发展
y uan
un ds</w>
mi t</w>
fi sh
cel estial</w>
att ack
， 因此
防 护
统 计
lit er
int ens
f av
auth enti
al ready</w>
W a
Th rough</w>
L H
High -
Guang d
A n</w>
系统 ，
wat er,</w>
streng th</w>
sof t</w>
recogni zed</w>
par ts</w>
n it
an other</w>
Au str
都 有
界 面
引 导
实时 监测
work .</w>
sour ces,</w>
show c
sec tion</w>
recei ved</w>
me tal
manufactur ing,</w>
em br
be am</w>
N ano
达 到
跟 踪
模式 和
农作物 的
vide o</w>
techniqu es,</w>
research ers,</w>
re construc
in de
healthcare ,</w>
great ly</w>
gl aci
D is
距 离
药物 研发
to da
sophi stic
resi li
projec ts.</w>
ph y
on e-
lo s
le r</w>
in .</w>
dru g</w>
cogni tive</w>
1 7
. g
转 换
treat ments</w>
polic y
oper ating</w>
ma m
ligh t.</w>
he li
behavior .</w>
b acter
H um
，这 是
病 毒
注 重
原 因
人 力
widespre ad</w>
thre e-
tem p
se min
scienti st</w>
s co
ro p
pro p
opport uni
lo soph
inclu ded</w>
her it
In di
Ex am
D o
(e .g
能够 在
答案： 科技在
最 大
societ y</w>
reach ing</w>
re ven
high- energy</w>
forec ast
econom y,</w>
conf lic
S er
， 企业
科技 伦理
沟 通
tr end
suff ici
simul tan
proper ties,</w>
ground breaking</w>
comb ining</w>
S i
1 6
是 指
得 到了
在 未来
tenti on</w>
sugges ted</w>
pro por
m ut
electr ic
degre e</w>
cop y
ap ply</w>
Mo re
： 利用
网络 科技
环境 污染
智慧 城市
整 体
扫 描
。其次 ，科技研究
utili zed</w>
under stan
stell ar</w>
sensi tivity</w>
pos sib
man ag
fa ir</w>
d ing.</w>
be am
al ed</w>
a di
Ti bet
L o
Antarc tic</w>
( 2)</w>
用 的
更好地 了解
大大 提高了
。这 样
w are</w>
soli d</w>
ne ar
n on
green house</w>
d "</w>
Earth ,</w>
扩 大
带来 的
可视 化
pro mis
pre ce
l ess
a k</w>
而 言
科技的 进步
深 化
技术， 我们可以
力 的
产生了深远 的影响
worl d,</w>
te e</w>
reac tion</w>
re main</w>
over ,</w>
organiz ation</w>
ic k</w>
fu sion</w>
con stra
的 出现
spectro scop
smar t
s mo
rel ess</w>
r in
manage ment.</w>
f lo
electron ics</w>
di tion</w>
b ase</w>
ator s,</w>
( 1)</w>
智能 机器人
文 本
严 格
valu es</w>
um- sized</w>
mem ory</w>
log is
ide al</w>
facilit ated</w>
effor t</w>
H ar
的安全 性
独 特
植 物
是 通过
simul ate</w>
produc ing</w>
ig n
hand le</w>
h ur
f ab
d den</w>
adap tation</w>
Indu strial</w>
I I
pi vo
op ini
nano tu
experi ence.</w>
exp ec
collabor ation,</w>
co -
b atter
au r</w>
C or
，这 将
化石燃料 的依赖
作 品
下 的
tic ally</w>
skil led</w>
se tting</w>
rais es</w>
pro found</w>
p ha
mete or
in cid
encour ages</w>
e missions</w>
de mo
consider ations</w>
com posi
b es</w>
adv ance</w>
G overn
G D
科技研究 对
提 前
影 像
将 会
产业 链
t ing,</w>
si x</w>
reduc es</w>
plas ma</w>
on ic</w>
invol ving</w>
improve ments</w>
ful l</w>
bio diversity</w>
More over,</w>
，从而 减少
电子 商务
更深入 地
the tical</w>
inves ting</w>
in spir
hel ping</w>
ec u
d ur
ass ess</w>
必 须
和 智能
utili ze</w>
ri c</w>
re plic
ment ing</w>
inf ring
g et
enhan ces</w>
Sta tes</w>
覆 盖
申 请
替 代
度 、
实际 应用
基础 研究
创 作
tive ,</w>
t a</w>
saf e</w>
re cover
medi ate</w>
inter face</w>
comm unities</w>
Chin a.</w>
负面 影响
环境 中
玩 家
有 可能
数据 科学
transpor tation</w>
selec tion</w>
s qu
introduc tion</w>
inc ub
cli mate
温室 气体
化 、
光 子
policy mak
pi lo
nano particles</w>
identi fication</w>
communic ation,</w>
boun dar
Sec ur
ST EM</w>
O n</w>
环境 的
整 合
延 迟
如何 通过
多 方面的
。其次，科技 也
w as
sc an
pi ec
oo l</w>
ne utron</w>
jo int</w>
inter disciplinary</w>
cri tici
cr it
ag g
F u
CRISPR-Cas 9
5 ,</w>
的 一
支 付
处 于
tal ent,</w>
sec re
sam pl
pollu tion</w>
n atu
ence ?</w>
analysi s.</w>
VR ）
The ir</w>
疫 情
措施 来
地 震
以下几 点
t age</w>
statu s</w>
li p
even tually</w>
ca uses</w>
bro ad
are as.</w>
Ri ver</w>
以下几 个
medi um-sized</w>
exp and</w>
corpor ate</w>
charg e</w>
at temp
S ur
I P</w>
I M
E con
虚拟现实 （
至关 重要的作用
来 ，
。 他们
tem por
serv es</w>
reas ons</w>
predic tive</w>
out put</w>
ga ther</w>
develop ments</w>
con s
cap ability</w>
argu ment</w>
ap plying</w>
Arc tic</w>
自动驾驶 汽车
时 代
你 认为
。 它们
sel f</w>
pa ir
optimi zation</w>
metho ds.</w>
heav y</w>
func tions</w>
buil t</w>
Univers ity,</w>
S econ
L A
知识 和
挑战 。</w>
成 就
u su
them sel
p al
mod ul
mainten ance</w>
autom ation</w>
att ribu
Fo und
B ay</w>
材料 和
当然可以 。
在 推动
w al
temperatu re,</w>
produc ts,</w>
pla in</w>
phi losoph
ment ally</w>
inten ded</w>
in spi
he ad</w>
f ast</w>
ed iting</w>
continu ed</w>
ag es,</w>
I ni
，以 下
虽 然
性 ：
困 难
tr al</w>
popul ations</w>
ne ur
navig ate</w>
k i
ha z
estim ate</w>
di vers
b om
annu al</w>
Nor th</w>
多 元
不断 进步
weap ons</w>
ve -
un ity</w>
re view
pre servation</w>
integr ity</w>
hypo thetical</w>
go od</w>
competi tiven
ar cha
S il
Labor atory</w>
的 性能
的 基本
现 了
月 球
seis mic</w>
scienti sts,</w>
practic es.</w>
pivo tal</w>
p s.</w>
g o</w>
ex ce
e mission
control ,</w>
bio technology</w>
ative ,</w>
，我们 需要
遗传 性
力 和
tiv ity.</w>
star s,</w>
so il</w>
silic on</w>
at ten
an ds</w>
St ate</w>
Pro gra
3 0</w>
配 置
节 能
激 励
文 章
改 良
引 领
两 个
vi ol
us ter</w>
reflec ts</w>
pro s
high light</w>
ar rang
Reg ul
O r
重 复
通 讯
结构 的
有哪些 ？</w>
ultra -
sub jec
sho wn</w>
increas es</w>
conven i
al th</w>
S E
G eo
， 在
需求 和
规 定
被 广泛
多样 性
具有重要 意义
wr it
volcan ic</w>
st .</w>
radi o
model ,</w>
le ast</w>
ho t</w>
facilit ates</w>
el l</w>
comp ati
co u
Engine ering</w>
En vi
( 3)</w>
， 用于
集 中
过 度
来 提高
恶意 软件
微 生物
实 例
worl d's</w>
transpar ent</w>
s low
p ass
ori es,</w>
n ation
hand ling</w>
cool ing</w>
c tu
ar ity</w>
So ci
P aci
20 20
量子 纠缠
的 研发
加 大
利 益
。再 次
year ,</w>
us .</w>
through out</w>
partic les.</w>
ho ur
govern ment's</w>
agricul tural</w>
需要 考虑
物 流
广 阔
发 布
un authorized</w>
th in</w>
se am
recei ve</w>
oth ers</w>
no table</w>
high- end</w>
crit eri
contribu tion</w>
cle an
center s</w>
attrac ting</w>
at s</w>
M on
Fac e
， 随着
观 点
氧 化
智能 合约
成为 可能
太阳能 和
太阳能 、
反 映
入 侵
spac e.</w>
sk ill
sens ing</w>
repres ents</w>
rea m</w>
oper ations.</w>
l ,</w>
h und
en ting</w>
du ci
d s?</w>
con serv
communic ations</w>
combin ed</w>
at h</w>
S in
Rus si
M in
Ini ti
Envi ron
Con si
的 理解
了 哪些
。 具体
surfac e.</w>
s m</w>
s es,</w>
instru ment</w>
ho pe</w>
fi sh</w>
di c</w>
aim ing</w>
Po tenti
Inter ne
还 可以帮助
辅 助
虚拟现实（ VR）
的 决策
人们 的生活
war m
research er</w>
pres su
ex ist</w>
es '</w>
em it
clust ers</w>
P e
G ener
致 力
影响 。首先，
信 任
wh o
ri t</w>
prece d
log y.</w>
contra st</w>
car ri
adap ted</w>
Potenti al</w>
L arg
非常 重要的
重大 突破
设 立
依 据
wide ly</w>
wh ite</w>
tin y</w>
team s</w>
st ac
ro les</w>
investig ate</w>
inste ad</w>
g ap
alo g
algorith m</w>
Smar t</w>
致力 于
科技 的研究
最 佳
国 防
re plac
propos al</w>
out lined</w>
i ties</w>
fu el</w>
fa ul
cont amin
bio logy</w>
argu e</w>
院 士
节 省
日常 生活
技术 创新
实现 了
备 份
和 信息
制 度
loc ated</w>
lay ers</w>
fun ds</w>
dise ases</w>
dedic ated</w>
bo und
b re
ate .</w>
Tec h</w>
Ro bo
M ini
G e
C I
， 对于
认 识
更 快
挖 掘
布 局
为 什么
show ing</w>
it y:</w>
ilit y,</w>
facili ties</w>
fac t</w>
dra w
der ing</w>
Col labor
19 8
重要 性
科技成果 的
电 脑
平 等
分 辨
世 纪
struc tural</w>
o scill
limi t</w>
k ing,</w>
incorpor ating</w>
impac ted</w>
bu dg
Th ere</w>
Indu stry</w>
视 角
的发展 。</w>
温室气体 排放
太阳能、 风能
国 内
周 期
参 数
mo ment
mem bers</w>
inspi red</w>
ga ther
effici ently</w>
eco system.</w>
dec line</w>
be l</w>
b lo
ac cumul
Y ang
Sci ences</w>
Mac hin
Ke y</w>
Energ y</w>
适 当
确 实
reac tions</w>
re pe
os aur</w>
li br
indic ate</w>
fac tor</w>
dep th</w>
consum p
compar is
boundar ies</w>
assi st</w>
T ai
" .</w>
无人 驾驶
太阳能和 风能
其 在
中小 企业
个人 隐私
。 如果
ref er</w>
rad ar</w>
in es</w>
i ons</w>
fe ature</w>
environ ments,</w>
cri min
chang ed</w>
** ：
随 时
癌 症
治疗 方法
更 高效
异 常
z ation,</w>
worl d
tu i
transpor t</w>
thre at</w>
sc atter
matter .</w>
li ke
force ment</w>
effor ts.</w>
determin ing</w>
continu ously</w>
U se</w>
SME s</w>
G lob
C A
虚拟现实 技术在
挑战 和
成 像
天 体
助 手
习 惯
” 的
wi reless</w>
reve al</w>
predic ted</w>
p sy
high- speed</w>
f rac
deb ate</w>
ast ero
Advan ced</w>
资金 支持
算法 和
气 象
合 适
变 革
发挥了 重要作用
医疗 设备
wea k</w>
speec h</w>
rul es</w>
partici pan
on 's</w>
occur s</w>
mon o
ment s?</w>
marke t.</w>
level s,</w>
he ad
ent ly,</w>
des i
cre ates</w>
ak es</w>
S h
B ri
， 进一步
请 问
第 一
科学 研究的
技术 可以帮助
sa v
robo tic</w>
real istic</w>
provin cial</w>
pat h</w>
occur red</w>
increas ingly</w>
hel d</w>
flu ctu
ex pos
employe es</w>
di oxide</w>
Standar d</w>
H ub
G ra
D el
青 年
轨 道
看 到
的 时间
家 庭
安全 和
农 田
产生 的
un d,</w>
supernov a
sector ,</w>
requi ring</w>
refer ence</w>
ph on
enhan ce
diag ra
ast ,</w>
Ch ang
3 -
认 知
的发展 ，
在线 教育
关 联
thin king</w>
ter ,</w>
sm all
pur pos
pan de
it y's</w>
inv ention</w>
gre at</w>
develo per
cate gor
am es</w>
a we
L i</w>
Ex plain</w>
Elec tr
行业 的
科研 项目
打 造
你 能
、 医疗
sw it
substan tial</w>
revolution ized</w>
preven ting</w>
m yst
labor ator
in tui
g lu
bio medical</w>
b b
abo ve</w>
Di rec
Ac t</w>
者 的
数据 进行
产业 的
为 我们
st age</w>
rele ased</w>
ra se</w>
prote in</w>
par alle
o il</w>
l ate</w>
de gra
Mode l</w>
2 5
逐 渐
电 路
流 动
有 几个
对 您
如何 在
例子 ：</w>
交流 和
y c
u s,</w>
strategi es.</w>
resul ts.</w>
per f
extinc tion</w>
communic ate</w>
col le
aliz ing</w>
S am
I D</w>
C ali
- to-
近 年
物联网 设备
可以 提供更
以上 就是
、 生物
tri gg
to po
st ages</w>
spi rit</w>
sophistic ated</w>
show ed</w>
ment :</w>
i ,</w>
fu ture.</w>
encryp tion</w>
effective ly.</w>
eco systems</w>
air cra
ad o
Mil ky</w>
(e.g .,</w>
开发 和
发 明
、 高
vari ab
simultan eous
min er
in duc
i ron</w>
gr an
d le</w>
X i</w>
V ir
R ob
限 于
通过 使用
最后 ，
提供 一些
度 的
wa ys.</w>
ro w
p tions</w>
matter ,</w>
instru mental</w>
i el
galax ies,</w>
der i
countri es,</w>
bal an
b illi
b and</w>
An aly
编 程
科技与研究 在
接 触
scenari os</w>
reve aled</w>
resul t,</w>
ex cep
e t,</w>
dron e</w>
activi ties.</w>
activi ties,</w>
( D
除 了
平台 ，
发 射
使 我们能够
uni fied</w>
ter r
tain ed</w>
projec t.</w>
produc tion,</w>
l ining</w>
e ous</w>
V alle
Fir st
Des ign</w>
资 料
经 典
和 物联网
不 会
sp read</w>
ro t
pursu e</w>
pol ar</w>
lea der</w>
l ens
gradu ate</w>
enti ties</w>
e mission</w>
dis order
defini tion</w>
chain ,</w>
appro pri
No bel</w>
C C
领 先
物 的
。因此 ，科技
work ers</w>
wor ds</w>
ve ,</w>
tak es</w>
su s</w>
sph ere</w>
shap ed</w>
produc ts.</w>
cultiv ation</w>
com pli
collec ting</w>
cell s,</w>
ag o,</w>
， 他们
所 述
必 要
可 信
及 其
人们 的
provin ce</w>
profession als</w>
oce an
m p
it er
fab ric
ex ecu
collabor ate</w>
ch ann
bio logy,</w>
Larg e</w>
样 的
有 关
和 教育
可能会 导致
协 议
。通过 使用
thous ands</w>
planet 's</w>
perform ance.</w>
p ain
out side</w>
on s.</w>
exten sive</w>
detec ted</w>
bir d</w>
artic le.</w>
archa eo
Un der
Ch eng
是 一
提供了 更多的
咨 询
分辨 率
保 健
。此外，科技 还
pre par
pilo t</w>
line ar</w>
le ment</w>
evol ving</w>
collec tive</w>
clas s</w>
cl uster</w>
Scienti sts</w>
难 以
科技 领域
材料 科学
无 需
授权 的
完 全
和 大数据
及时 发现
医学 研究
societ y.</w>
sion s,</w>
sector .</w>
human -
guid ance</w>
des truc
de .</w>
coordin ation</w>
comm uni
co ast
M S</w>
L in
Com p
超 过
环保 的
最新 研究
、 水
tor s.</w>
thir d</w>
tailo red</w>
t ack
structu res,</w>
startu ps</w>
st s.</w>
p .</w>
ob stac
moder ni
invest ments</w>
foo t
fe a
demonstr ation</w>
commerci alization</w>
administr ative</w>
add ed</w>
Austr ali
运 用
电动 汽车
政策 的
才 能
uncertain ty</w>
um .</w>
trans mit
tr end</w>
th or
t ab
pion e
opport unity</w>
networ ks,</w>
n 't</w>
mem ber</w>
issu es.</w>
immer sive</w>
gu ar
dise a
cont act</w>
Pro ject</w>
销 售
贡献 。</w>
继 续
来 自
societ al</w>
sens ors,</w>
re tur
power ed</w>
n anom
lead ers</w>
l en
intens ity</w>
hu b</w>
av en
A g
领域的 研究
综 上
框 架
旅 游
文 明
巨大的 潜力
地区 的
tion :</w>
s ;</w>
represent ation</w>
ob ser
fra g
flu id</w>
equi val
deli ver
bodi es</w>
Su n</w>
Hu awe
A )</w>
重 视
虫 害
有 利
可持续 性
可以 实现
出 了
关键 作用
zh en</w>
t ou
recor ds</w>
re port
qu ali
promis ing</w>
pos sibilities</w>
initi ativ
ho od</w>
ex act</w>
en g</w>
der s,</w>
dec ad
co her
c au
bo tt
bo son
achieve ment</w>
T im
N i
In ste
First ly,</w>
" S
， 甚至
追 溯
能源 的
生态 系统
值得 关注
ti l
model s.</w>
marke t,</w>
f ast
detec tor</w>
deli very</w>
consci ous
commun ity.</w>
ang ,</w>
Ser v
P at
， 人工智能
科学家 可以
康 复
废 弃
以下几 种
ur g
s how</w>
reli gi
psy cho
practic es,</w>
physici sts</w>
no tes</w>
hol d</w>
gi ant</w>
cr yp
connec tions</w>
Exam ples</w>
Develo ping</w>
Com pan
2 1
( M
，以 减少
综上 所述
的 变化
更 高效的
智能家居 系统
拥 有
un c
perio d,</w>
partner ship</w>
for ni
f em
emp lo
e ma
custo mi
cre ativ
a o
，特别 是
， 优化
生产 成本
市场 需求
太阳能 电池
叠 加
力 。</w>
中国 的
upd ated</w>
suffici ent</w>
rel ative</w>
pro mi
larg est</w>
inst all
envi sion</w>
ele ment</w>
d enti
c ali
bri dge</w>
as p
Speci fic
Paci fic</w>
Mini stry</w>
C ity</w>
( AI
灌 溉
应用 ？</w>
地 质
包括 ：
、 数据
zh ou
velo city</w>
re d
ph ar
partner ships</w>
h on
emphasi zing</w>
affec ting</w>
I t's</w>
9 0
） 和
边 缘
的研究 成果
提供 个性化的
抗 病
尽 管
和 水
w o
volum e</w>
solu tions.</w>
separ ate</w>
resi stance</w>
rati o</w>
ori ent
or .</w>
micro wave</w>
ment ary</w>
in sul
found ational</w>
entrepreneur s</w>
dis ast
cost s,</w>
chi p</w>
chemistr y,</w>
brea k</w>
al e</w>
（ AR
遵 循
心理 学
品 牌
system s?</w>
sum mar
significan t,</w>
sh e</w>
se d,</w>
predic tion</w>
preci pit
prac tice</w>
pl ant</w>
open -
ll ing</w>
k -
er up
en tr
ch ec
b el
透明 度
自 身
的 建设
未 经
期 待
和 企业
另 一个
un preced
unpreced ented</w>
system ?</w>
repres ent</w>
projec t's</w>
percep tion</w>
n ur
i m</w>
dis play</w>
con fer
cer ti
be comes</w>
authenti c
at ,</w>
analy tics</w>
Op en</w>
A N
1 1
( F
， 利用
问题 ？</w>
有 价值
探 讨
全 国
仪 器
st ream</w>
siz e,</w>
pres ent
machin es</w>
li ve</w>
go o
ex cell
equip ped</w>
c k</w>
ar ,</w>
al location</w>
acqui si
C enter
A ,</w>
， 防止
需要 大量的
尊 重
包 含
一 代
ta il
ship .</w>
sc ri
rou ght</w>
process ing,</w>
per cei
on al</w>
measu red</w>
mac eu
knowledg e,</w>
i es?</w>
exhi bi
en ough</w>
conver sion</w>
at tention</w>
an y
ag enci
S pec
D avi
，可以 通过
引 进
tici p
mo tiv
manipul ate</w>
loc ations</w>
j ur
er o</w>
determin ed</w>
deploy ment</w>
contra dic
as h
al ity,</w>
a id</w>
Su per
H om
Glob al</w>
E st
，可以 提高
资金 来源
解决方案 。</w>
的 是
期 刊
支持 。</w>
射 线
你 的
time -
theor y.</w>
see king</w>
region ,</w>
person nel</w>
leg is
ic h
coll ap
Mar s</w>
H a
Ar ti
高 科技
进行 了
蛋 白
精准 农业
生物 工程
滥 用
权 益
旅 行
吸 收
sustain ability</w>
re vi
pus h
posi tions</w>
pho tons</w>
nor mal</w>
loo k</w>
j ud
inv ent
fail u
Shen zhen</w>
S tra
Cali forni
3 ,</w>
19 7
遗传性 疾病
的 基因
极 端
未来 趋势
定 义
健康 状况
wi der</w>
universi ties,</w>
tw o-
trans fer
prin t</w>
of -
lic ens
it y
human s.</w>
hal f</w>
gi ving</w>
do main
d es,</w>
confi g
beli eved</w>
W ang</w>
Specific ally,</w>
C ha
Antarc tic
，以下 是一些
的 普及
清 晰
大量 数据
大 型
和 自动化
可靠 性
准确 性
win do
recogni zing</w>
re in
re form
promo tion</w>
pla ying</w>
oper ations,</w>
nano scale</w>
medic ine</w>
me an</w>
i or</w>
fac ial</w>
eng agement</w>
en ed</w>
electron ics,</w>
degre es</w>
bi ases</w>
avail ability</w>
V ID
统 一
后 ，
suppor tive</w>
rais e</w>
proces s?</w>
prin ting</w>
pos ite</w>
poly mer</w>
or ity</w>
k ilo
equip ment,</w>
docu ment</w>
controll ing</w>
ate d,</w>
approach ,</w>
an -
al ter
Z he
X -
Est abli
C ur
( E
，促进 了
足 够
识别 、
证 明
联 系
网 站
的 同时
流 量
检 查
最 终
序 列
只 有
分析 大量的
sh ed</w>
sec u
pl ate</w>
particip ate</w>
o mi
le t
interfac es</w>
incorpor ate</w>
hypothes is</w>
ev ents,</w>
ent ly.</w>
data sets</w>
concentr ation</w>
buil d
芯 片
深 圳
正在 改变
推动 作用
情 报
快速 发展
准确 的
农 药
z hen
y iel
vari ety</w>
us er-
tion "</w>
team ,</w>
t ation,</w>
st res
sp in
software ,</w>
reven ue</w>
reach ed</w>
proto co
p en
nes s.</w>
landscap e</w>
ke ep</w>
chem ic
bec ame</w>
Pri v
Gre at</w>
D )</w>
6 0</w>
50 0</w>
（ AI
能源 消耗
系统 、
程度 上
正 常
新兴 科技
政策和 法规
技术 可以用于
基因组 学
use ,</w>
transform ing</w>
re forms</w>
pho ton</w>
navig ation</w>
l y
innov ation
gui ding</w>
govern ment,</w>
ex c
def ec
acceler ation</w>
Y ear</w>
，帮助 我们
，实现 了
， 你
趋势 和
自 由
产量 和
war ning</w>
var ying</w>
v ap
un ded</w>
trans form</w>
tra in
ta x
no ise</w>
mean ing
interes ts</w>
evalu ate</w>
do ing</w>
describ es</w>
all y.</w>
W e</w>
S ol
P ub
P l
CO 2</w>
C y
高 的
非常 重要
转 变
货 币
要 素
环境 变化
爆 炸
来 进行
北 京
不断 发展
work ed</w>
technolog y-
se n</w>
sch ol
recogni ze</w>
pattern s.</w>
particul ar</w>
i ted</w>
haz ar
er ror</w>
dis semin
copy right</w>
con tex
analy zed</w>
als ?</w>
aliz ation,</w>
Sin ce</w>
A re
） 、
防 火
科技 发展的
病 人
环境 和
包括 ：</w>
全 新的
信息 ，
scal e,</w>
qu est</w>
ma tes</w>
le t</w>
health ,</w>
han g</w>
el der
din osaur</w>
chang es,</w>
ast er
New ton
H aw
Ch ong
，这 一
采 集
科技在 教育
的 能力
的 稳定
检测 和
无 线
方式 。</w>
提升 了
决 定
交 叉
上 海
、 人工智能
year .</w>
tim el
threat s.</w>
rel ying</w>
protec tion,</w>
o zone</w>
minim izing</w>
journ al</w>
ho o
gener ating</w>
fo ur
ep ing</w>
ar ies</w>
S a
A L
20 0</w>
19 5
领域 中，
请 列
的 发现
法律 法规
标 志
教育 资源
技术的发展 ，
引 起
对 人类
合适 的
公 开
v ital</w>
teach ing</w>
p al</w>
n uan
itu de</w>
inv est</w>
inter ven
inten se</w>
in spec
entrepreneur ial</w>
energ y-
employ ment</w>
earli er</w>
depart ments</w>
am pli
ag es.</w>
ac tual</w>
Machin e</w>
I ce</w>
C P
B a
防火 墙
请描述 一下
诊断 疾病
舒 适
森 林
时间 和
应用 的
将 更加
准确 地
全球 气候变化
仍 然
th us</w>
respon ding</w>
perform ance,</w>
op tim
n ing.</w>
materi al,</w>
j us
er s?</w>
bro ad</w>
， 不仅
重要的 角色
购 物
对您 有所帮助
医疗 领域的
也 会
严 重
wr iting</w>
rec ru
pre serving</w>
fac ing</w>
e ting</w>
d ol
cryst als</w>
cou pl
cho ol
ces s</w>
budg et</w>
barri ers</w>
O ce
Clo ud</w>
CO VID
高质量 发展
认 证
的 "
生物 医学
模型 的
整 个
和 方法
和 学习
。首先 ，科技研究
。 还有
surfac e,</w>
super conducting</w>
st one</w>
sign s</w>
la b</w>
fic ation,</w>
f ing
expos ure</w>
e as
data se
bir ds</w>
beg an</w>
anim als</w>
an i
agre e
ag o.</w>
adju st
ac knowledg
2 4
， 推动了
自 我
满 意
可能 性。</w>
信息 学
举 例
though t.</w>
surve y</w>
si c</w>
proble ms.</w>
particip ation</w>
mel ting</w>
inc re
histor y,</w>
fac es</w>
exp end
en ,</w>
c y</w>
ater restrial</w>
appropri ate</w>
ac ous
LE D
A C
调 查
虚拟现实 游戏
物 体
学 校
ve .</w>
su sp
strategi es,</w>
si l
safe ty,</w>
ro ad
ri g
rais ed</w>
promo tes</w>
nit ro
need s.</w>
issu es,</w>
h app
gradu al</w>
blo od</w>
Secur ity</w>
S he</w>
S ,</w>
间 的
强 大
可以 减少
医疗 领域
区 别
。 他
th ing</w>
sion s.</w>
radi ation,</w>
on to</w>
oc curr
mam m
interpre tation</w>
infra structure.</w>
f al
ex clu
ent al</w>
decision s.</w>
d re
d ing
ch ,</w>
adap tive</w>
Imple menting</w>
En han
航天 科技
联 合
经济 效益
物 种
机器学习 和
更加 高效
更加 便捷
单 位
减 轻
供应链 管理
人 民
丰富 的
个 体
。首先， 它
v ent
th ick
sever e</w>
recommend ations</w>
platform s.</w>
mir r
me ,</w>
level s.</w>
glas s</w>
ele v
econ omi
eco systems.</w>
degra d
claim s</w>
Pro jec
E duc
Chong q
Al though</w>
， 了解
评估 和
能够 更
的准确 性和
的 过程
欺 诈
强 度
功能 和
分享 一些
year -
w ear
sub sequ
sh ing</w>
s low</w>
pres ents</w>
off ici
loo king</w>
im plic
graph ene</w>
detec tors</w>
decreas e</w>
connec t</w>
compan ies.</w>
coast al</w>
an sw
all s</w>
Telescop e</w>
7 ,</w>
领 导
能源 效率
等 方面的
称 为
的发展 也
有 害
暗 物质
塑 料
和 存储
发挥 重要作用
中 起着
vari ations</w>
top ics</w>
ter s,</w>
sub ject</w>
sto red</w>
se -
scal e.</w>
region s.</w>
re put
phar maceu
milli ons</w>
meaning ful</w>
mar k</w>
m ici
job s</w>
invest ment,</w>
hur ric
fun d</w>
er a</w>
dis per
di stor
d one</w>
d ly,</w>
b lu
auto mated</w>
I S</w>
， 不
经 费
科技 人才
无 论
和 高效
光 谱
。总的来说 ，科技研究
。 而
ve d.</w>
upgra ding</w>
t ze</w>
se as
priv acy,</w>
on to
objec tiv
ner .</w>
commun ity,</w>
cle an</w>
ade qu
Yang tze</w>
S O
Phys ics</w>
O ver</w>
M i
L t
Inte gr
Ch ri
Arti ficial</w>
-- -
， 导致
首 次
都 能
购 买
的重要 性
的 网络
产生 深远
了 新的
三 维
tru e</w>
te sts</w>
ro tation</w>
p h</w>
ori ented</w>
objec ts,</w>
monitor ing,</w>
le y</w>
hard ware</w>
free dom</w>
countri es.</w>
citiz ens</w>
cam pa
bene ficial</w>
assess ment</w>
anom al
an alog
activ ity,</w>
Z one</w>
W estern</w>
Tran s
Syste m</w>
O l
As soci
部 署
等 技术，
种 植
最新 进展
成 长
忽 视
工作 者
安全 、
医 药
人工智能 （AI
举例 说明
w it
to o
tion s?</w>
te ly</w>
strong er</w>
so le
re tain</w>
ple .</w>
on e,</w>
mean ing</w>
lear ning,</w>
insi de</w>
fil m</w>
extr aterrestrial</w>
ev ents.</w>
dou b
direc tions</w>
concer n</w>
acade mi
abs orb
Provin ce</w>
L C
F ran
Einste in</w>
5G 技术
途 径
计算 能力
医疗 保健
创造 出
产业 升级
tim ely</w>
t ations</w>
problem -
level ,</w>
it self</w>
hab itable</w>
fol low</w>
experi ment,</w>
equ ation</w>
ba sis</w>
ad just</w>
a z
Technolog y,</w>
Davi d</w>
B ang</w>
2 -
高 速
高 校
规 则
艺术 家
科技成果 转化
的 科学
数据 泄露
对环境 的影响
实时 监控
安 装
可以帮助 医生
发挥着 重要作用
主 体
use .</w>
th .</w>
syn thetic</w>
s li
s atis
rou gh
plan ning,</w>
objec tive</w>
integra tes</w>
illustr ate</w>
fav or
en sive</w>
dig it
criteri a</w>
comb at</w>
ance r</w>
aliz ed,</w>
al li
Networ k</w>
B el
， 旨在
高 端
还 能
行为 和
营 销
有 机
损 失
之 前
suppor t,</w>
prote ins</w>
planet s,</w>
molecul es,</w>
m im
log ists</w>
ligh t-
is m,</w>
innov ation?</w>
human s,</w>
expla ins</w>
en z
effor ts,</w>
distribu ted</w>
an th
a ud
L ast
Inste ad,</w>
IB M
H en
，从而 推动
， 来
适当 的
生活 质量
生产 效率和
环 节
数据 传输
展示 了
体 制
传 递
人 机
tor ,</w>
standar ds,</w>
shor t-
pos it
laun ched</w>
gen om
flexi b
expan ded</w>
datab ase</w>
chang es.</w>
calcul ate</w>
Last ly,</w>
Grou p</w>
+ --------
， 您可以
质 的
相对 论
地球 的
发现 了
令 人
。 总之，
top -
roo m</w>
re n</w>
perio ds</w>
mis sion,</w>
lit tle</w>
li ves</w>
k ine
herit age</w>
fac ility</w>
astr on
ar ise</w>
Com mit
Af ter</w>
， 鼓励
第 三
的 科技研究
版 权
正 确
技术的 研究
战 场
和 研究的
和 改进
伙 伴
。 为了
ve d,</w>
univers ity</w>
polici es,</w>
ong -
need s,</w>
ma pping</w>
m ate</w>
invol vement</w>
incenti ves</w>
geo graphic</w>
fi x
fa ir
diver si
dis clo
colle ag
W u
Ti an
Man agement</w>
MR I
< 当然可以。
5G 和物联网
，科技 创新
，以 实现
， 与
预 期
请 讨论
等 领域的
磁 场
生物 科技在
更高 的
更 大的
思 考
微 观
对 经济
ver te
vac u
to x
roc ks</w>
reve aling</w>
r are</w>
p ene
mem or
lan d,</w>
k now</w>
in s,</w>
histor y.</w>
graph ical</w>
form ation,</w>
col d</w>
b reach
an ticip
algorith ms,</w>
acces sibility</w>
T e
I R
Hum an</w>
GP S</w>
G reater</w>
F T
Co .,</w>
8 ,</w>
- up</w>
良 好的
更准确 的
层 次
对 象
参 考
区块链 技术可以
侵 犯
使用 的
企业 和
二 氧化
stakehol ders</w>
sing le-
scan ning</w>
produc tivity</w>
leng th</w>
he mo
fun ding,</w>
evol ve</w>
defin ed</w>
defin e</w>
d ing:</w>
cre ative</w>
Tibet ans</w>
Tai w
Off ice</w>
Gre en
, 并
设备 ，
答案：< 在
数据 库
制 作
内 的
互 联
争 议
。这 包括
y et</w>
visu alization</w>
typ ical</w>
transform ed</w>
st y
st ress</w>
posi tioning</w>
parame ters</w>
pa y
orb it</w>
mechanis ms,</w>
m atic</w>
g et</w>
f ar</w>
cost- effective</w>
cost s.</w>
config ur
aw are</w>
abili ties.</w>
S tr
F er
飞 机
降 解
神经 网络
监 督
的 结合
的 科研
的 形成
欧 洲
广泛 的
和 解决
可再生能源 的
保护 和
中 ,
tool s,</w>
st oc
seam less</w>
progra m,</w>
platform ,</w>
ph ones</w>
over si
o v
neutrin o</w>
necess ar
move ments</w>
mi li
li hood</w>
in put</w>
expla ined</w>
child ren
be i</w>
b one</w>
at ur
ari ties</w>
Observ atory</w>
Me ta
I '
A t</w>
6 ,</w>
--- +</w>
资 助
资 产
紧 密
的 基础
生 存
样 本
来 解决
搜 索
拍 摄
专 精
。这 将
tr ying</w>
themsel ves</w>
stimul ate</w>
s ),</w>
pow er,</w>
per son</w>
paper s</w>
inter est
ilit y.</w>
hund re
fu el
ex ci
equ al</w>
dis cre
data -driven</w>
d y</w>
Shangh ai
La ke</w>
Col li
5 %</w>
% ,</w>
道德 和
的 质量
传感器 和
中扮演 着
techniqu es.</w>
te 's</w>
startu p</w>
ong ,</w>
nuan ced</w>
ei ther</w>
cryp to
can di
anti -
S hand
S en
M c
Di strict</w>
" 的
高 度
释 放
适 用于
答案：< 科技在
现实 世界
深度学习 算法
日 益
在 不同
和 工作
允 许
专精 特
、 教育
state -
roc k</w>
repor t,</w>
pro active</w>
optim al</w>
measure s,</w>
initi ally</w>
graph y,</w>
experi enced</w>
ex plic
collabor ations</w>
circul ation</w>
b ab
atic ally</w>
appe ar</w>
absor ption</w>
Shen zhen
H i
Govern ment</w>
Chin a?</w>
科技 如何帮助
的 。</w>
环境 。</w>
特定 的
未经 授权的
工业 互联网
审 查
地 的
不 平等
wor ds,</w>
vehic les</w>
star s.</w>
ric h
reflec ting</w>
re turn</w>
pas s</w>
level .</w>
inclu sive</w>
ic on</w>
i 's</w>
finan cing</w>
en try</w>
cor al</w>
cont ain</w>
comparis on</w>
com pres
boo k,</w>
Pro tec
K ong</w>
Ap ple</w>
被广泛 应用于
生 动
环境 监测
寿 命
商业 化
不 足
yuan ,</w>
w id
un cover</w>
th w
ter min
temperatu res,</w>
spectr um</w>
se as</w>
perio d.</w>
micro bi
log ic</w>
ligh t
in e.</w>
fi ber</w>
exper t</w>
desi red</w>
coordin ated</w>
b s</w>
att acks</w>
atmospher e,</w>
af for
T al
Rob ert</w>
Mic ha
En ter
E ast</w>
D ,</w>
( G
： 使用
， 使用
障 碍
进 而
负 责
表 现在
线 性
电 网
理 念
大 脑
在线 学习
免 疫
ver sion</w>
trop ical</w>
survi val</w>
sive ,</w>
scop e</w>
qu o
prob ability</w>
princi pl
gen ome</w>
fun ded</w>
exp ect</w>
confid ence</w>
con sul
com for
avo i
alig ns</w>
aero space</w>
R is
Pri ze</w>
H ad
Cam bri
，减少 了
， 进行
遇 到
过 去
研究 中，
来 实现
性能 和
性和 可
年 代
工具 ，如
可能 对
可持续发展 。</w>
wa y.</w>
wa ves,</w>
subsequ ent</w>
state ,</w>
spac e
resul ted</w>
regul ation</w>
region 's</w>
reas on
neutrin os</w>
le "</w>
impro ves</w>
flexi bility</w>
f la
err ors</w>
ed ul
doc tor
compar ing</w>
bi om
are a,</w>
R ic
Can ad
C N
2 3
- related</w>
，并 为
高 水平
问题 ：
那 么
逼 真
正在 研究
在线 课程
各个 领域
可能 存在
但 不
也 可以
专 门
st er
sk y</w>
ro om
o res
micro -
mi su
hemo glob
h es
gi ve</w>
fo rest</w>
favor able</w>
f loo
explo red</w>
camer a</w>
c in
ap p</w>
alig n
ab und
R el
N at
Micha el</w>
Im pro
H y
E E
Afric a</w>
， 希望
还 需要
贸 易
设 置
解释 一下
科 普
有 趣
数字化 转型
数字 经济
提供 更好的
形 态
学 家
存储 和
大数据 的
可能 需要
减少 了
做出 了
代 码
临 床
专精特 新
war f</w>
vulner able</w>
se d.</w>
r ural</w>
produc tion.</w>
par ty</w>
p el
ligh ting</w>
inv a
induc ed</w>
in qui
health y</w>
constra in
attrac ted</w>
ato m</w>
aster n</w>
adop ting</w>
ac e</w>
S of
Nan j
Fi ve-
还 可以帮助我们
身 体
自 强
简 单
等 问题
科技 公司
成果 的
带 动
在 科研
在 农业
免 受
也 为
sym metry</w>
stru gg
sh el
s es.</w>
me eting</w>
ma ps</w>
i ous</w>
hol ds</w>
ho sp
ent rop
dynam ics,</w>
cover ed</w>
com posed</w>
b ol
Ex peri
% .</w>
， 研究人员
金 属
邮 件
资金 的
的 具体
比 较
数据 的安全
基因 测序
产生 影响
也 将
。这些 都是
we ight</w>
ti sh</w>
targ ets</w>
synthes is</w>
sole ly</w>
sector s.</w>
refin e</w>
over view</w>
n am
m 's</w>
it y"</w>
interac tions.</w>
industr y?</w>
hy bri
gu e</w>
fic ations</w>
far -
extrac t</w>
en forcement</w>
emo tional</w>
eco system,</w>
dou ble</w>
direc tor</w>
b rought</w>
al ways</w>
Priv acy</w>
P lat
M ed
Labor ator
C .</w>
B ar
， 预测
， 科学家们
进 化
节 点
自动化 和
是 推动
新 材料
投资 者
工 艺
可能会 对
加 剧
但不 限于
了 一个
y ou
strength s</w>
se ?</w>
s or
ph rase</w>
objec ts.</w>
mas s.</w>
har mon
do or</w>
d ense</w>
construc tion,</w>
bound ary</w>
aven ues</w>
ation s:</w>
al ys
S S
Gener al</w>
Enter pri
Cen tral</w>
， 增加
访问 控制
突 出
洞 察
摄 像
捕 获
意 见
力 发电
体 现了
。这 项
usu al</w>
under sco
u ds</w>
prioriti zing</w>
prep are</w>
popul ar</w>
ob tain</w>
o logy</w>
lin k</w>
l or
hor iz
factor s,</w>
f as
di ame
con ference</w>
civi l</w>
c ases</w>
ang ular</w>
T it
H er
Cong ress</w>
1 2</w>
+-------- ----
， 主要
高 新技术
研究 领域
物联网 技术
海 量
数据 隐私
拥 堵
大大 提高
在科技研究 中的
和 需求
协 调
区块链 的
war m</w>
ve y</w>
ti l</w>
tal ents,</w>
sur g
procedu res</w>
planet s.</w>
other ,</w>
op ening</w>
networ ks.</w>
min ing</w>
microscop e</w>
mar ks</w>
inv en
inclu ding:</w>
high est</w>
developer s</w>
depend ent</w>
dec ay</w>
dec ade
d ang
activ ity.</w>
U sing</w>
P ho
GP S
Are a</w>
A M
19 6
1 1</w>
， 中国
融 资
教育和 培训
废弃 物
干 扰
尝 试
导 体
去中心 化
vent ure</w>
ther .</w>
sch edul
ran dom</w>
pre dat
popul ar
pe ak</w>
oxy gen
ox id
lo ad</w>
difficul ties</w>
der s.</w>
deman ds</w>
con fin
com mod
c ancer</w>
boo st</w>
assemb ly</w>
an s,</w>
Mo un
K o
" M
： 定期
，以 防止
面临 着
自 立
的情况 下
水 资源
未 知
敏感 信息
措施 。</w>
成 员
可以通过 多种方式
也 需要
两 种
不可 篡改
。这 个
z ation.</w>
vulner abilities</w>
sour ces.</w>
sol ute</w>
s es
policymak ers</w>
pic ture</w>
p ped</w>
ow ner
le ft</w>
function ality</w>
exten ded</w>
experi ences.</w>
et ary</w>
employ ed</w>
do main</w>
discus ses</w>
decision-mak ing.</w>
clo ser</w>
cali br
bri ght
an ese</w>
al ism</w>
advan ces</w>
acceler ated</w>
Under standing</w>
Stra te
P E
Compan ies</w>
，帮助 医生
， 加强
重 力
设计 师
表 达
自立 自强
等 技术
方面 取得了
政策制定 者
地 进行
国家 和
交通 运输
之间的 关系
un til</w>
soci e
ri gor
reve als</w>
re mark
perspec tives</w>
pene tr
on ce</w>
n ame</w>
methodo logy</w>
maxim um</w>
intui tive</w>
insi gh
il ar
hundre ds</w>
galax ies.</w>
gain ed</w>
dis plac
de d,</w>
cover ing</w>
cour se</w>
Sil icon</w>
R F
Or gan
D .</w>
A ma
（AR ）
科技 领域的
的 一些
病 人的
沉浸式 的
揭示 了
年 的
带来了 许多
发 表
传统 能源
tor n
stor age,</w>
sequ ence</w>
sa ving</w>
s u</w>
s chool
rea ding</w>
po st-
organiz ational</w>
n ut
n e</w>
mitig ating</w>
ment "</w>
mar ked</w>
it ation</w>
introduc ing</w>
impac t.</w>
i te
har m</w>
habit at</w>
exp e
dep ending</w>
d ates</w>
comp act</w>
cla im</w>
aircra ft</w>
ac ts</w>
Euro p
C u
追 求
科技 手段
伦理 和
专 注
waveleng th</w>
tri lli
str ing</w>
sol v
ro w</w>
ro po
protoco ls</w>
pati ents</w>
mitig ation</w>
im mediate</w>
h ou
fin al</w>
feed back
f el
en ces
effici ent,</w>
duci ve</w>
du al</w>
distingu ish</w>
de d.</w>
con ducive</w>
c le</w>
b er,</w>
ate s,</w>
astronom y</w>
assum ptions</w>
Scienti fic</w>
J ames</w>
I N
Bo th</w>
+------------ ---+</w>
( T
， 然后
， 加速
道 路
研究 方法
研究 方向
的 目标
构 成
显著 的
如何 确保
和 保护
优 秀
人工智能 的发展
事 业
。这 有助于
。此外 ，科技研究
。例如， 在
vi a</w>
stud ent</w>
star t</w>
she et</w>
resul ts,</w>
pul ses</w>
n an
like lihood</w>
ic e,</w>
hi dden</w>
for ward</w>
equ ations</w>
discus sion</w>
cro w
combin es</w>
cam e</w>
c lock
au g
atmospher e.</w>
architec ture</w>
an der
account ability</w>
Y o
L ab
Hub ble</w>
Environ mental</w>
B er
1 5</w>
， 其中
这些 技术
科技 产品
知识产权 保护
的学习 体验
生物 体的
和 量子
周 围
中提 到的
。 例如
sup port
structu res.</w>
s ick
s ).</w>
risk s.</w>
other s.</w>
materi al.</w>
lu min
inf ec
fe el</w>
ence "</w>
ed it
eas y</w>
diagra m</w>
di gi
demo cr
cru ci
assi stan
advance ments.</w>
acous tic</w>
W est</w>
Q ing
Com pu
C har
雷 达
随时 随
重 新
虚拟现实（VR） 和增强现实
聚 焦
网络安全 专家
类 似
简 化
科技创新 的
科 创
所 需
所 以
学 研
大数据 与
催 化
we igh
tas ks,</w>
son 's</w>
qu as
proble ms,</w>
microbi al</w>
mag n
ke eping</w>
it y-
it self
in sec
il ,</w>
flu ores
ey e</w>
computer s.</w>
comp as
civili an</w>
business es,</w>
We b</w>
Hom o</w>
4 0</w>
-1 9</w>
钓 鱼
远程 教育
科学 院
气 体的
文 献
挑战 ？</w>
情 感
应用 。</w>
应对 气候变化
工具和 方法
和 控制
作 者
。首先， 通过
wa y,</w>
universe ?</w>
ture ?</w>
trend s,</w>
sm ,</w>
self- reliance</w>
prop ag
po st
p ron
neur ons</w>
m es</w>
l ar
high- performance</w>
g old</w>
g ases</w>
eri al</w>
e onto
differ enti
competitiven ess.</w>
bor der</w>
b erg
Vir tual</w>
Nat ural</w>
E m
那 些
观 众
稳定 性
科学 技术
研究和 开发
合作 伙伴
各 国
发现 新的
创造 新的
出 行
公众 的
产 学研
一 致
work sho
trans ac
to ur
tim ing</w>
th is,</w>
survi ve</w>
sp ar
region s,</w>
plan ts</w>
ol e</w>
man ner.</w>
institu tional</w>
fam ily</w>
f -
expres sion</w>
distan ces</w>
dise ases.</w>
dis crimin
computer s,</w>
compli ance</w>
Soci ety</w>
S ha
F uture</w>
F re
Consi dering</w>
Commun ic
5 00
，这 样
黑客 攻击
高质量 的
都 在
设计 、
目 的
独特 的
混 合
有 一些
基 地
器 件
和 理解
卫 生
促 使
二氧化 碳
一 部分
一 方面，
。总的来说，科技 与研究
。其次， 通过
vehic le</w>
under water</w>
sal es</w>
reconstruc t</w>
protec ted</w>
promi se</w>
pa ir</w>
mac ro
li ved</w>
hear t</w>
gro w</w>
emp ir
emit ted</w>
dise ases,</w>
dis k</w>
chimpanze es</w>
auth ori
ar ray</w>
applic ations?</w>
ang 's</w>
al- level</w>
ac ial</w>
Th ings</w>
Secon dly,</w>
S up
S ub
I G
H T
G en
Five- Year</w>
F ro
C M
< 科技在
， 未来
重大 影响
表 示
电 磁
挑战 。
减少对 化石燃料的依赖
企业 在
事 故
z z
x i</w>
wor d
v ec
st ation</w>
separ ation</w>
se tu
pro per</w>
particip ating</w>
on lin
lim its</w>
laun ch</w>
inter ference</w>
gather ing</w>
fin ite</w>
et s,</w>
discus sing</w>
characteris tic</w>
attribu ted</w>
al ity.</w>
affor d
a "</w>
Zhe jiang</w>
E ff
COVID -19</w>
A str
，从而 实现
降低 了
管理 系统
真实 的
病 历
攻 关
收 入
影响 力
密码 学
和 趋势
产生了深远 影响
云计算 和大数据
ur ne
ul y</w>
t sun
structu red</w>
so me
se g
s ,"</w>
out come</w>
milit ar
milest one</w>
j unc
influ encing</w>
credi t</w>
correc t</w>
child ren</w>
centur y</w>
center ed</w>
M arti
J up
G od</w>
B us
，可以 实现
高 精度
科技 与
的 理论
清 洗
实 用
和 政策
变 暖
医生 可以
利用 效率
writ ten</w>
w er</w>
v ention</w>
test ing,</w>
ter restrial</w>
stor m</w>
state .</w>
spec ul
quar ks</w>
provi ders</w>
prev ention</w>
participan ts</w>
nut ri
moment um</w>
mob ility</w>
ke t</w>
experti se,</w>
equival ent</w>
engineer ing.</w>
distingu ish
consump tion,</w>
co t
Plan "</w>
5 .
， 大大提高了
采取 相应的
透明 度和
良 好
的 提升
病 虫害
格 局
智能 交通
是 非常重要的
数据 收集
数据 处理
数据 。</w>
数据 、
战 争
和 知识
可 行
准 备
主 题
不 确定
wat er.</w>
tur n,</w>
three- dimensional</w>
the me</w>
t s"</w>
qual ity.</w>
pus h</w>
public ation</w>
mem bran
lin ked</w>
lab or</w>
interpre t</w>
inf er
hemoglob in</w>
he mi
ex em
dinosaur s</w>
d warf</w>
d less</w>
cooper ation,</w>
boo k
are a.</w>
ag o</w>
ac cid
Spac e
So cial</w>
S an
E U</w>
30 0</w>
- scale</w>
， 进而
， 学生
链 接
请列 举
的影响 ？</w>
新兴 产业
指 出
建 模
其 境
临 其境
tu red</w>
pac k
p in
organiz ed</w>
op tics</w>
ex er
doctor al</w>
conver g
cell ular</w>
calcul ations</w>
al most</w>
L ear
I denti
问题 ，如
身 临其境
请 详细
示 范
现 出
支持 和
很 大
引发 了
将 在
对环境 保护
定 律
出 版
人工智能 技术
z ones</w>
worl d-
v inc
transpar ency,</w>
ti ous</w>
ta ins</w>
standardi zation</w>
spectroscop y</w>
sour cing</w>
showc asing</w>
s ent
respon sibility</w>
rel ations</w>
protec tion.</w>
pro min
pro be</w>
orb ital</w>
featu res,</w>
explo res</w>
cover age</w>
as :</w>
ap ter</w>
ap h
al ist</w>
Z hang</w>
Q i
M or
M et
9 .</w>
，这 使得
谷 歌
穿 戴
科研成果 的
的 效果
有利 于
提供了 强大的
地 面
在 研究
反映 了
全球 范围内
也 能
。 比如
w ild
us ers.</w>
un d.</w>
stor ing</w>
sp or
solu tions,</w>
ra inf
pande mic
im ply</w>
gr ant</w>
go als.</w>
fossi l
fa mili
de la
clo uds</w>
ances tor</w>
agg reg
S ky</w>
P y
Intellig ent</w>
Econ omic</w>
AS T
5 )</w>
领域 的发展
领域 有哪些
领域 中的
转 移
角 度
等 多个
渠 道
深 刻
涵 盖
机制 ，
很 多
差 距
实 体
宇 航
威胁 。</w>
地 获取
国家 的
和 维护
后 的
化学 反应
加密 算法
函 数
公司 的
中的应用 。</w>
yo ung
terr or
tack le</w>
si s,</w>
over seas</w>
n ic
indic ators</w>
ilar ly,</w>
ho li
health .</w>
evalu ating</w>
dist urb
connec tivity</w>
compon ents,</w>
center s,</w>
adop t</w>
ad dition</w>
ab solute</w>
Sim ilarly,</w>
O S
B lock
A li
20 19
： 虚拟现实
，并 提供
随 机
路 线
类型 的
竞争力 。</w>
生物 多样性
权 限
市场 的
外 部
和 通信
分 别
以下几点 ：</w>
。例如，通过 使用
v or
sive ly</w>
sa w</w>
s uring</w>
risk s,</w>
recover y</w>
radio active</w>
pro tons</w>
peo ple's</w>
paralle l</w>
opportuni ties.</w>
on ics</w>
off ic
nat ur
nanotu bes</w>
min u
mi d-
journ als</w>
in come</w>
forecast ing</w>
every day</w>
elder ly</w>
ec ra
cont ent,</w>
comp ens
care fully</w>
camer as</w>
ca se,</w>
bri dg
b lock</w>
asp ect</w>
D ec
Con duc
A ut
A le
， 那么
， 更
量子计算机 的
资 本
营 养
的 人
是一个 重要的
必要 的
强 密码
依赖 于
作为 一
书 籍
也 使得
举 措
主要体现在 以下几个方面：</w>
严格 的
丢 失
专注 于
z ero</w>
vo ice</w>
transi st
tissu e</w>
thri ve</w>
team 's</w>
tas k</w>
supernov a</w>
sens ory</w>
regar dless</w>
refer red</w>
physic ist</w>
phenomen a.</w>
p on
ou ter</w>
marke ting</w>
logis tics</w>
innovation -driven</w>
im mun
heav ily</w>
frame works</w>
f light</w>
exam pl
continu es</w>
construc ting</w>
classi fication</w>
ci l</w>
challeng e.</w>
ab ly</w>
a per
X u
Sun 's</w>
R ec
M ag
A war
4 ,</w>
阅 读
精 细
审 计
宇宙 中的
可以 使
医疗 领域的应用
克 隆
transpor tation,</w>
spac es</w>
sector s,</w>
ru s</w>
ri d
research ers'</w>
repor ts</w>
p p
on gg
me et
insi ght</w>
gl acial</w>
evolution ?</w>
enhance ment</w>
discover y,</w>
design .</w>
consum ers</w>
charg ed</w>
at a</w>
argu ments</w>
ad ver
NAS A
Intellig ence</w>
I )</w>
2 5</w>
1 -
( A
， 可能会
， 共同
， 他
生物 质
期 间
数据分析 和
如何 改变
可以 将
代 表
visu alize</w>
tempor ary</w>
system atic</w>
sup pli
standar ds.</w>
secon d
s s
progra ms,</w>
pro fit</w>
pre serve</w>
on e.</w>
o d
nitro gen</w>
milest ones</w>
l un
k es</w>
it ?</w>
ici pal</w>
for cing</w>
electric ity</w>
desig ns</w>
dec entr
da y,</w>
collabor ation.</w>
clust ers,</w>
chain .</w>
ch oo
atom s,</w>
adequ ate</w>
W illi
Th om
Guangd ong</w>
Ge or
En suring</w>
E d
D ef
A rea
阻 止
经 过
独 立
活 力
机器人 的
服务 的
奠 定
传统 计算机
人才 的
。例如， 使用
though t,</w>
t z</w>
standardi zed</w>
spac ecra
spac e-
societ y,</w>
pursu it</w>
part ners</w>
pac e</w>
lan ds</w>
kine tic</w>
jo urne
inter connected</w>
fail ure</w>
ele ments,</w>
dedic ation</w>
ch am
cat astro
c lin
b and
ati tu
ar ri
St ar
C D
6 .
) ?</w>
： 首先
： 确保
输 入
调 节
的问题 。</w>
生产 和
架 构
智能 化的
晶 体
新型 的
新 区
新 一代
影响 了
对 教育
安全 性和
work s,</w>
variab les</w>
vari ant</w>
therap eu
th ec
structu re
public .</w>
progres s.</w>
pre served</w>
lear ned</w>
il lan
hist ori
gap s</w>
ent 's</w>
di am
de l
comb ine</w>
bacter ia</w>
awar ded</w>
arti fac
ap preci
ad e</w>
accur acy.</w>
M use
Found ation</w>
Cambri an</w>
，使 我们能够
集中 在
连 续
窃 取
科技与研究 领域的
研 讨
深度 融合
核心 技术
条件 下
成功 案例
已经 在
如何 提高
园 区
合 规
军事 防御
不 能
ti er</w>
ste p
st abili
spectr al</w>
repor ted</w>
relativ ity</w>
ran king</w>
r eno
in ation</w>
ici ous</w>
h un
for ce,</w>
fir ms</w>
experi ments,</w>
ex posed</w>
empir ical</w>
d r
con soli
batter y</w>
ar m</w>
analy sts</w>
an atom
acces sib
T yp
T E
Shand ong</w>
LH C</w>
G a
Euro pe</w>
Cur r
，减少 对
， 满足
运 作
蛋白 质
虚拟现实 技术的
而言 之
缺 乏
空气 质量
积极 的
电 影
生物 信息学
方面 有哪些
故 障
寻 求
在 太空
中 子
一个 重要
。这 意味着
。 研究人员
、 交通
vi o
ve get
vari ability</w>
un it</w>
t ance</w>
ri sing</w>
re ment</w>
pos s
po ol</w>
num bers</w>
mas s,</w>
man tle</w>
m use
hu mid
cultiv ate</w>
cro p</w>
cir cum
bo ard</w>
bio divers
b att
al ter</w>
al ?</w>
W ay</w>
Par ty</w>
Jin ping</w>
Jiang su</w>
Co ur
Bra z
，尤其 是
解决 这些
生态 环境
比 例
有许多 应用
是 的，
方式 和
新 星
斯 坦
工 厂
在科技研究 中
和 开发
和 卫星
创新 驱动
主要体现在 以下几个方面
不 是
w ned</w>
tec ton
t ol
st ro
st ory</w>
st ated</w>
pul se</w>
phy si
mechan ics,</w>
log ra
go ing</w>
fron t</w>
fiel d?</w>
f ru
effici ently.</w>
co ding</w>
b en
align ment</w>
Sof tw
P ow
O ther</w>
CE R
7 .
(AI )</w>
" T
遗传 疾病
科技研究 中
特别 是在
有 用
是什么 ？
摄像 头
提供了 更
提 取
带来 新的
地 点
个性化 教学
。 对于
undersco res</w>
stream line</w>
perio dic</w>
op ens</w>
mici an</w>
las ers</w>
in ess</w>
grou ps,</w>
ful l
form ation.</w>
experi ences,</w>
en rich
eco systems,</w>
dimen sions</w>
confir med</w>
confir m</w>
ci ties,</w>
cent ric</w>
benef its,</w>
ab str
a qu
U N
Astr onom
Americ a</w>
( 4)</w>
远程 控制
能 等
考虑 到
红 外
系统 可以
答案： 在
研究 结果
相 结合
的 发生
率 和
治疗 效果
应 急
家 中
城市 的
和 经济
加 工
利用 科技
再 次
偏 远
作物 的
人才 培养
中的 角色
个性化 医疗
一 旦
。首先，科技 创新
。此外， 人工智能
。 我
work force</w>
we b</w>
tas ks.</w>
tal ent.</w>
skill s,</w>
ship s,</w>
satelli tes</w>
repres ented</w>
reli es</w>
nor thern</w>
methodo log
li qu
gi c</w>
fluctu ations</w>
fir e</w>
effec tiven
earthqu akes</w>
cur y</w>
conscious ness</w>
ator ,</w>
ation -
astero id</w>
ast .</w>
ac tic</w>
W in
V en
Ris k</w>
R adi
Micro soft</w>
MR D</w>
M id
M echan
Huawe i</w>
Fro m</w>
( IoT
，科技 和研究
论 坛
能够 更好地
纳米 材料
干 细胞
分析 、
准 则
净 化
一些 挑战
” ，
z ero
un known</w>
tro n</w>
stre t
sp ending</w>
shar ing,</w>
s pl
repor ting</w>
polar ization</w>
no te</w>
near -
li st
la id</w>
jud g
inva sive</w>
intern ation
interac tions,</w>
id s,</w>
h ub
explan ations</w>
effec ts.</w>
b ig
accur acy,</w>
S cot
Pl an</w>
P al
Com mission</w>
Ch en</w>
谈 谈
被 认为
突破 性
生产效率 ，降低
明 显
时 期
方 程
攻击 者
改 造
成 熟
总 而言之
性 别
对 接
密 度
太阳 系
和 文化
分 为
人工智能和 大数据
x ,</w>
windo w</w>
upgra de</w>
un usual</w>
sub -
su s
strateg y,</w>
spe ak
so ,</w>
sci ences</w>
ron t</w>
robo tics,</w>
piec e</w>
new ly</w>
mis sing</w>
microscop y</w>
experi ence,</w>
exem pli
exam ine</w>
er ation</w>
emerg ed</w>
der ,</w>
de ple
c ity,</w>
analog y</w>
aliz ation.</w>
alig ning</w>
Technolog ical</w>
R O
Pub lic</w>
P rin
Ne ander
C limate</w>
Bri tish</w>
9 ,</w>
， 建立
， 具体
规划 和
的影响 。首先，
现代 化
测试 和
污染 物
模拟 和
拓 展
存储 在
大 幅
几 种
偏 好
作用 。</w>
。 由于
us age</w>
trans f
super massive</w>
se "</w>
scal ing</w>
rigor ous</w>
priv acy.</w>
out put
os ity</w>
nano wi
in her
hour s</w>
fo ref
expres sed</w>
audi ence.</w>
approach ?</w>
adop ted</w>
a erial</w>
P )</w>
Imple ment</w>
E ach</w>
C er
9 .
，而 且
，以 适应
） 的
革 新
集 聚
防 控
边缘 计算
超 级
超 导
服务 。</w>
日 本
方面 的应用
密 钥
在 解决
产业 发展
中提 取
v oc
tra in</w>
topo logical</w>
t :</w>
simul ating</w>
sear ching</w>
pos es</w>
pol ym
ori es.</w>
ol ecul
o s,</w>
networ k,</w>
materi al's</w>
li tig
follow ed</w>
f it
emphasi ze</w>
di um</w>
detec tion,</w>
d ness</w>
constan tly</w>
communic ations,</w>
civili z
cap turing</w>
c locks</w>
beg in
b ers,</w>
attrac tive</w>
acquisi tion</w>
O ut
N IS
M is
E U
Colli der</w>
C i
C al
5 -
